
/* Copyright 2019 The TensorFlow Authors. All Rights Reserved.

Licensed under the Apache License, Version 2.0 (the "License");
you may not use this file except in compliance with the License.
You may obtain a copy of the License at

    http://www.apache.org/licenses/LICENSE-2.0

Unless required by applicable law or agreed to in writing, software
distributed under the License is distributed on an "AS IS" BASIS,
WITHOUT WARRANTIES OR CONDITIONS OF ANY KIND, either express or implied.
See the License for the specific language governing permissions and
limitations under the License.
==============================================================================*/

// This is a TensorFlow Lite model file that has been converted into a C data
// array using the tensorflow.lite.util.convert_bytes_to_c_source() function.
// This form is useful for compiling into a binary for devices that don't have a
// file system.

#include "tensorflow/lite/micro/examples/voice_detection_experimental/voice_detect_model_data.h"

// Keep model aligned to 8 bytes to guarantee aligned 64-bit accesses.

alignas(8) const unsigned char g_rbk_model_data[] = {
  0x24, 0x00, 0x00, 0x00, 0x54, 0x46, 0x4C, 0x33, 0x00, 0x00,
  0x00, 0x00, 0x00, 0x00, 0x00, 0x00, 0x00, 0x00, 0x12, 0x00,
  0x1C, 0x00, 0x04, 0x00, 0x08, 0x00, 0x0C, 0x00, 0x10, 0x00,
  0x14, 0x00, 0x00, 0x00, 0x18, 0x00, 0x12, 0x00, 0x00, 0x00,
  0x03, 0x00, 0x00, 0x00, 0xB8, 0x15, 0x00, 0x00, 0x74, 0x09,
  0x00, 0x00, 0x5C, 0x09, 0x00, 0x00, 0x3C, 0x00, 0x00, 0x00,
  0x04, 0x00, 0x00, 0x00, 0x01, 0x00, 0x00, 0x00, 0x0C, 0x00,
  0x00, 0x00, 0x08, 0x00, 0x0C, 0x00, 0x04, 0x00, 0x08, 0x00,
  0x08, 0x00, 0x00, 0x00, 0x08, 0x00, 0x00, 0x00, 0x0E, 0x00,
  0x00, 0x00, 0x13, 0x00, 0x00, 0x00, 0x6D, 0x69, 0x6E, 0x5F,
  0x72, 0x75, 0x6E, 0x74, 0x69, 0x6D, 0x65, 0x5F, 0x76, 0x65,
  0x72, 0x73, 0x69, 0x6F, 0x6E, 0x00, 0x0F, 0x00, 0x00, 0x00,
  0x14, 0x09, 0x00, 0x00, 0x00, 0x09, 0x00, 0x00, 0xE4, 0x08,
  0x00, 0x00, 0xC0, 0x08, 0x00, 0x00, 0xAC, 0x08, 0x00, 0x00,
  0x88, 0x08, 0x00, 0x00, 0x64, 0x08, 0x00, 0x00, 0xA0, 0x00,
  0x00, 0x00, 0x8C, 0x00, 0x00, 0x00, 0x80, 0x00, 0x00, 0x00,
  0x6C, 0x00, 0x00, 0x00, 0x58, 0x00, 0x00, 0x00, 0x44, 0x00,
  0x00, 0x00, 0x30, 0x00, 0x00, 0x00, 0x04, 0x00, 0x00, 0x00,
  0x92, 0xF6, 0xFF, 0xFF, 0x04, 0x00, 0x00, 0x00, 0x10, 0x00,
  0x00, 0x00, 0x31, 0x2E, 0x35, 0x2E, 0x30, 0x00, 0x00, 0x00,
  0x00, 0x00, 0x00, 0x00, 0x00, 0x00, 0x00, 0x00, 0x00, 0x00,
  0x00, 0x00, 0x00, 0x00, 0x00, 0x00, 0x00, 0x00, 0x00, 0x00,
  0x68, 0xEC, 0xFF, 0xFF, 0x00, 0x00, 0x00, 0x00, 0x00, 0x00,
  0x00, 0x00, 0x00, 0x00, 0x00, 0x00, 0x78, 0xEC, 0xFF, 0xFF,
  0x00, 0x00, 0x00, 0x00, 0x00, 0x00, 0x00, 0x00, 0x00, 0x00,
  0x00, 0x00, 0x88, 0xEC, 0xFF, 0xFF, 0x00, 0x00, 0x00, 0x00,
  0x00, 0x00, 0x00, 0x00, 0x00, 0x00, 0x00, 0x00, 0x98, 0xEC,
  0xFF, 0xFF, 0x00, 0x00, 0x00, 0x00, 0x00, 0x00, 0x00, 0x00,
  0x00, 0x00, 0x00, 0x00, 0xA8, 0xEC, 0xFF, 0xFF, 0x00, 0x00,
  0x00, 0x00, 0x02, 0xF7, 0xFF, 0xFF, 0x04, 0x00, 0x00, 0x00,
  0x02, 0x00, 0x00, 0x00, 0x81, 0x81, 0x00, 0x00, 0x12, 0xF7,
  0xFF, 0xFF, 0x04, 0x00, 0x00, 0x00, 0xA8, 0x07, 0x00, 0x00,
  0xF5, 0x9A, 0xB9, 0xAF, 0xA4, 0x17, 0xF6, 0x03, 0x76, 0x7F,
  0x4C, 0x66, 0x47, 0x13, 0x0B, 0x22, 0x33, 0xD1, 0x04, 0x0B,
  0x38, 0x4E, 0x19, 0xBF, 0xE2, 0xE6, 0x05, 0x39, 0xFE, 0xE9,
  0xFF, 0x1C, 0x06, 0x04, 0x3A, 0x13, 0x25, 0x00, 0x28, 0x27,
  0xF0, 0xF6, 0xF8, 0xE8, 0x25, 0x30, 0xE2, 0x2A, 0x34, 0x02,
  0x25, 0x2D, 0xD3, 0xB9, 0xE6, 0x45, 0x09, 0x19, 0x60, 0x31,
  0x45, 0x1D, 0x06, 0x21, 0x30, 0x1E, 0x42, 0x1F, 0xEF, 0x20,
  0xFE, 0x54, 0xED, 0xCE, 0xE4, 0xFE, 0xEF, 0x11, 0x1E, 0x12,
  0xF8, 0x0F, 0x19, 0x4C, 0xD9, 0x08, 0x2F, 0x2C, 0x0B, 0x27,
  0xD7, 0x3B, 0xDF, 0x30, 0xFD, 0x26, 0xCA, 0xE1, 0x24, 0x2E,
  0xF8, 0x21, 0xD8, 0xE4, 0xC5, 0x24, 0xFC, 0x2C, 0x42, 0x4A,
  0x17, 0x0C, 0x24, 0xD8, 0x05, 0x24, 0xE8, 0xF8, 0x53, 0xFA,
  0x37, 0x33, 0x06, 0xF7, 0xE6, 0xD5, 0x32, 0x0F, 0x1E, 0x15,
  0x2C, 0x03, 0xD2, 0x21, 0x13, 0x2E, 0xD0, 0xEB, 0x4D, 0x4E,
  0xF5, 0x29, 0x0B, 0x03, 0xDA, 0xF2, 0xE5, 0x03, 0xDC, 0x3C,
  0x11, 0xFE, 0xFA, 0x40, 0xC3, 0x03, 0x25, 0xE4, 0xEB, 0x2A,
  0x46, 0x40, 0xCD, 0x23, 0xFA, 0x12, 0xF8, 0x49, 0x25, 0x2D,
  0x23, 0x0C, 0x11, 0xFE, 0x08, 0x04, 0x12, 0x17, 0xE9, 0x17,
  0xD4, 0x1D, 0x27, 0xCE, 0xCA, 0xEF, 0x58, 0x34, 0x2B, 0x1D,
  0x5A, 0x6B, 0x39, 0xEE, 0xD5, 0x06, 0x25, 0xEC, 0x1F, 0x0E,
  0x04, 0x12, 0x2B, 0xE6, 0xF1, 0xDD, 0x4B, 0x5F, 0xF2, 0x03,
  0x55, 0xF5, 0x35, 0xD6, 0xD0, 0x1B, 0x0C, 0x09, 0x1C, 0x2C,
  0xF4, 0xF8, 0xD0, 0x28, 0x21, 0xC2, 0x44, 0x2E, 0x0F, 0x36,
  0x31, 0x39, 0x2C, 0xEB, 0x3B, 0x53, 0xF1, 0x12, 0x20, 0xE1,
  0xE1, 0x33, 0xEF, 0x08, 0xE1, 0x1A, 0x3D, 0xD6, 0xFF, 0xF0,
  0xFA, 0x31, 0xE3, 0x1D, 0xDB, 0xCC, 0x35, 0xDF, 0x1A, 0xDD,
  0x10, 0xF5, 0xEC, 0xEB, 0x15, 0x19, 0xDF, 0xFC, 0x42, 0x0D,
  0xF6, 0x5D, 0xB7, 0xD9, 0x13, 0xE1, 0xCD, 0x17, 0xDA, 0x2C,
  0x1E, 0x22, 0xFA, 0xFB, 0x4B, 0x24, 0xC8, 0xF5, 0x40, 0x3E,
  0x6D, 0x23, 0x33, 0xF8, 0xC8, 0xE7, 0x23, 0x0C, 0xE9, 0xD8,
  0x41, 0x51, 0xB6, 0x25, 0xEC, 0x31, 0xD7, 0xF7, 0x30, 0x56,
  0xF3, 0x3F, 0xD8, 0xAF, 0x4F, 0x20, 0xDC, 0xFE, 0x02, 0x1E,
  0xF8, 0x6E, 0xFB, 0x25, 0xF5, 0xE3, 0xFA, 0xCC, 0x62, 0x5E,
  0x16, 0x3F, 0xDB, 0x2A, 0x1E, 0x42, 0xDB, 0x02, 0xEF, 0xE7,
  0x22, 0x2B, 0x16, 0x16, 0xFA, 0xD4, 0x11, 0xC3, 0x00, 0xE0,
  0x0A, 0xFF, 0xED, 0x0A, 0xF7, 0x00, 0x1C, 0x0E, 0xBA, 0xEE,
  0xE4, 0x17, 0x26, 0xFB, 0x0E, 0x07, 0xD9, 0xBE, 0x33, 0xE8,
  0xF1, 0xF7, 0x0E, 0x28, 0xF9, 0x4C, 0x2E, 0x40, 0x00, 0x09,
  0xE2, 0x26, 0x17, 0x39, 0x25, 0x28, 0xCF, 0xF4, 0x15, 0x18,
  0xFF, 0x1C, 0xF8, 0x12, 0x06, 0x6B, 0xDD, 0xE0, 0x22, 0x3A,
  0x0F, 0x5A, 0xCB, 0x18, 0xF7, 0x05, 0x9E, 0xF2, 0xC9, 0xFE,
  0xE1, 0x2A, 0x41, 0xEA, 0x03, 0x45, 0xDA, 0xF6, 0xEC, 0xE7,
  0xF2, 0x2A, 0xFE, 0x39, 0xD2, 0x0C, 0x1A, 0xD1, 0xDA, 0xFF,
  0x12, 0x30, 0xED, 0x18, 0x25, 0x02, 0x2F, 0x36, 0x03, 0xFE,
  0x3A, 0x3E, 0xCB, 0xF8, 0x23, 0xFC, 0x12, 0x04, 0x12, 0x07,
  0x1A, 0xCF, 0xFF, 0x17, 0x0D, 0xF0, 0x07, 0x1B, 0xF4, 0x28,
  0x36, 0x2E, 0xDD, 0x16, 0xF4, 0xD8, 0x0A, 0xC3, 0x0F, 0xF7,
  0xCE, 0x06, 0xC3, 0xFB, 0x14, 0xF1, 0xD2, 0xEB, 0xE4, 0x09,
  0x05, 0x22, 0x0A, 0x2F, 0xE7, 0x25, 0x01, 0xF6, 0x1A, 0x3E,
  0xBA, 0xF2, 0x19, 0xBE, 0xE6, 0xD0, 0x23, 0xF7, 0xC5, 0x06,
  0x1F, 0x02, 0x1D, 0x08, 0x04, 0x35, 0xD4, 0xF6, 0x0E, 0xE6,
  0x36, 0x11, 0x25, 0xFB, 0x56, 0xEB, 0x15, 0xE0, 0x14, 0x0C,
  0xBE, 0xEF, 0x20, 0xD2, 0x02, 0xDC, 0xE5, 0xF2, 0xE9, 0x0B,
  0xBE, 0xF3, 0x05, 0xB6, 0x1B, 0xD1, 0x17, 0xE8, 0x40, 0x48,
  0x03, 0x08, 0xF3, 0xDC, 0x19, 0x29, 0xF6, 0x0D, 0x1B, 0x0E,
  0xC5, 0xBE, 0xCD, 0xF7, 0xC3, 0xCC, 0x2D, 0x14, 0x15, 0x12,
  0x29, 0x1F, 0x2C, 0xEA, 0x1F, 0xF3, 0xF5, 0xB9, 0xD2, 0xFF,
  0xF7, 0x14, 0xBD, 0xB0, 0xEF, 0xCD, 0xFF, 0x03, 0xFD, 0xDA,
  0x31, 0x3C, 0xDB, 0xD8, 0x06, 0xF0, 0x37, 0xC9, 0x38, 0x44,
  0xBF, 0x04, 0xC7, 0xFA, 0xDC, 0x25, 0xE6, 0x0C, 0x14, 0xED,
  0x3F, 0xED, 0xFA, 0x07, 0xD0, 0xD3, 0xF8, 0xCD, 0x04, 0xF9,
  0xF7, 0x17, 0xC3, 0xF9, 0x0A, 0xF5, 0x02, 0xE7, 0xCF, 0x27,
  0x08, 0xE2, 0xD4, 0xEF, 0xC6, 0xD4, 0x3B, 0x19, 0x21, 0xE8,
  0xDE, 0xF5, 0xF8, 0xE5, 0xE3, 0xCC, 0xD7, 0xCB, 0xD7, 0x00,
  0x01, 0x1F, 0x2F, 0xF7, 0x4E, 0xE0, 0x28, 0xD3, 0x27, 0xD1,
  0x19, 0x3B, 0xE4, 0x96, 0x2F, 0x10, 0x11, 0x46, 0x3E, 0x02,
  0x0B, 0x30, 0xDA, 0xC7, 0xE0, 0x05, 0x03, 0x3E, 0xD2, 0xBF,
  0x01, 0x0C, 0x93, 0xA8, 0xE9, 0x04, 0x1A, 0xDA, 0xEC, 0x0C,
  0xF7, 0x31, 0x33, 0x36, 0x1B, 0xAE, 0x56, 0x34, 0xD4, 0xCA,
  0xEA, 0xE9, 0xF2, 0x02, 0x43, 0x0E, 0xDC, 0xCD, 0xEF, 0x08,
  0x34, 0x10, 0x25, 0xD8, 0x1A, 0xE5, 0xF4, 0xCF, 0x38, 0x26,
  0x39, 0xEC, 0xB4, 0xF4, 0xF3, 0x2C, 0xF9, 0xDC, 0x1A, 0x55,
  0xED, 0x22, 0xF3, 0xD2, 0x03, 0x33, 0xDC, 0xDB, 0xC8, 0xDD,
  0xFE, 0xF7, 0x04, 0x1C, 0xC6, 0xE8, 0x25, 0xC0, 0xD8, 0xE7,
  0x1B, 0x52, 0xCA, 0xC4, 0x17, 0x47, 0x02, 0x0E, 0xDC, 0xD6,
  0xE3, 0xC3, 0xFF, 0x99, 0x27, 0xE8, 0x23, 0xDC, 0xD2, 0x0D,
  0xEF, 0xEB, 0xDB, 0x3C, 0xE9, 0x2B, 0xDD, 0xD5, 0xCA, 0x0F,
  0xEF, 0x41, 0xF6, 0xFE, 0xE1, 0xFA, 0x2C, 0xCD, 0x2F, 0x08,
  0xEE, 0xF6, 0xE8, 0xEC, 0xC8, 0x33, 0xCE, 0x00, 0xE9, 0x00,
  0x07, 0x2B, 0x8C, 0xDC, 0x06, 0xC9, 0xE7, 0x34, 0x30, 0x0E,
  0xFC, 0xC9, 0xF7, 0x26, 0xE5, 0xCF, 0xE8, 0xD2, 0x4A, 0x10,
  0xCA, 0x04, 0xE9, 0xF9, 0xCF, 0xE7, 0xFA, 0x03, 0xCC, 0xB6,
  0xFE, 0xE4, 0x2A, 0x3E, 0xD6, 0x22, 0xAF, 0x0C, 0xE8, 0x15,
  0xDF, 0x24, 0xFC, 0x29, 0x40, 0x12, 0xEC, 0xD6, 0xCE, 0xCF,
  0xF7, 0xFE, 0xF6, 0xDE, 0x13, 0x1C, 0xBF, 0xD9, 0xE0, 0x2D,
  0x16, 0x51, 0x20, 0x01, 0x10, 0x00, 0xBB, 0xF5, 0xD6, 0x1E,
  0x69, 0x7B, 0x06, 0x10, 0xEA, 0xFB, 0xB1, 0xC7, 0xE3, 0x15,
  0xCF, 0xBE, 0xC3, 0x21, 0xE3, 0x1C, 0xB3, 0xEB, 0xD9, 0x20,
  0xFD, 0x49, 0xD3, 0xF0, 0xEE, 0xDA, 0xC3, 0xBC, 0xCE, 0xDE,
  0xD9, 0x10, 0x21, 0xEF, 0x14, 0xFB, 0x20, 0x10, 0xFD, 0x09,
  0x23, 0xD9, 0x14, 0xF0, 0x1B, 0xEF, 0xC0, 0x07, 0xFB, 0xD5,
  0xD1, 0xD4, 0xB9, 0x1F, 0xD5, 0xB4, 0xB5, 0xE7, 0xBE, 0x06,
  0x0B, 0x55, 0xE3, 0x1D, 0x5D, 0x56, 0xDB, 0xDD, 0x09, 0xE4,
  0xBE, 0xE8, 0x13, 0x30, 0xE0, 0xEC, 0x3D, 0x23, 0xFB, 0xED,
  0xB5, 0x0D, 0x34, 0x0D, 0x25, 0x16, 0x03, 0xCF, 0xF4, 0x08,
  0x2F, 0xFC, 0xF1, 0xC4, 0xB7, 0xE6, 0xC5, 0x06, 0x0D, 0x1F,
  0x54, 0x45, 0xD9, 0xC9, 0x19, 0x34, 0xC2, 0xC8, 0xEE, 0xFF,
  0xD5, 0xEB, 0xDB, 0xD3, 0xFD, 0x27, 0x1C, 0xCC, 0x10, 0xD3,
  0x29, 0x25, 0x1F, 0x46, 0x08, 0x21, 0xCF, 0xB5, 0x99, 0x95,
  0xD4, 0xAB, 0xBD, 0xCE, 0xE5, 0x82, 0xFF, 0xDB, 0xDD, 0xDE,
  0xBD, 0xAE, 0x04, 0x3A, 0x21, 0xE0, 0xD8, 0xAF, 0x28, 0xF8,
  0xE3, 0x0F, 0x34, 0x04, 0xCA, 0xC9, 0x43, 0x37, 0xD3, 0xE4,
  0x25, 0x07, 0xD0, 0x09, 0xF9, 0x24, 0x09, 0xE7, 0xC8, 0x02,
  0x0B, 0xEA, 0xFF, 0xE6, 0x13, 0xE0, 0xEF, 0xD9, 0xA0, 0xBE,
  0x29, 0xF4, 0x2A, 0x06, 0x07, 0xF6, 0xB8, 0x8C, 0x13, 0xDC,
  0x10, 0xB7, 0x40, 0x0D, 0xD7, 0xDC, 0xC7, 0x02, 0xE8, 0x9F,
  0x1B, 0x9D, 0x13, 0xE1, 0xEB, 0x40, 0xB5, 0xA5, 0xC6, 0xB5,
  0xB3, 0xF3, 0x05, 0x27, 0xCA, 0x30, 0x20, 0x35, 0xB0, 0xD2,
  0x2C, 0x3C, 0x25, 0xE9, 0x43, 0xD5, 0xFB, 0xFF, 0x1E, 0xF2,
  0x4C, 0x16, 0xE9, 0x36, 0x2A, 0x16, 0xD5, 0x34, 0xFF, 0x04,
  0xC1, 0xCB, 0xEC, 0x2D, 0xDB, 0x0A, 0xBF, 0xA3, 0x02, 0xCF,
  0xF0, 0x96, 0xE7, 0xE4, 0xE2, 0x30, 0x41, 0x29, 0x16, 0x02,
  0x20, 0xBA, 0xED, 0x20, 0x32, 0xEF, 0xE9, 0xCF, 0xE8, 0xEE,
  0xB4, 0xE2, 0x01, 0xBE, 0x35, 0xCA, 0xF9, 0xC4, 0xA8, 0x0A,
  0xE3, 0xDC, 0xC1, 0x2F, 0x39, 0xEF, 0xEB, 0xAA, 0x2B, 0xE5,
  0xDB, 0xE1, 0xCD, 0xEF, 0x07, 0x36, 0xEA, 0xDF, 0x02, 0x0F,
  0x29, 0x0E, 0xED, 0x0C, 0xEF, 0x2F, 0x8B, 0xBF, 0x03, 0xEE,
  0xA4, 0xF9, 0xB7, 0xB6, 0x29, 0x35, 0xDB, 0x08, 0xDC, 0xB8,
  0xC2, 0xAF, 0x1B, 0xF0, 0x13, 0xEC, 0xFC, 0x04, 0xEB, 0xF0,
  0x07, 0xB9, 0xD5, 0x0C, 0xD6, 0xD3, 0xF6, 0xEC, 0xEA, 0xB1,
  0xEB, 0xDD, 0x14, 0xD1, 0xD9, 0x40, 0x03, 0x0B, 0xA9, 0x0B,
  0x8D, 0xE5, 0xDA, 0x12, 0xC7, 0xF0, 0x2D, 0xC2, 0xDB, 0xF1,
  0xC6, 0xF8, 0x21, 0xD5, 0x3F, 0x1B, 0x08, 0x08, 0xB2, 0xC9,
  0xFD, 0x15, 0x08, 0x3B, 0xC8, 0xE5, 0x17, 0x30, 0xDC, 0x2F,
  0xDB, 0xA6, 0xC6, 0xD7, 0xC5, 0x21, 0x23, 0x2D, 0xCA, 0x06,
  0xBC, 0xCE, 0x58, 0x31, 0xC9, 0x34, 0xCB, 0x10, 0x00, 0xD5,
  0xFF, 0xE5, 0xEC, 0x2A, 0xF8, 0xE3, 0x15, 0x18, 0xCF, 0xCF,
  0xD8, 0xC7, 0xDC, 0xFB, 0x36, 0xD9, 0x08, 0x3B, 0xDD, 0x0A,
  0xBD, 0xC6, 0x34, 0x14, 0x14, 0xD7, 0x31, 0x0B, 0xCA, 0x94,
  0xA4, 0xDA, 0x07, 0x0A, 0xE7, 0x08, 0xEA, 0x18, 0xC9, 0xF7,
  0xCA, 0xAB, 0x30, 0xFC, 0xAF, 0xC0, 0x27, 0x01, 0xC5, 0xFC,
  0xA4, 0x04, 0xFA, 0xF7, 0xDD, 0xC8, 0xF9, 0xD6, 0xDC, 0xFD,
  0xC0, 0xB2, 0x2D, 0x03, 0xEC, 0xFC, 0x33, 0x05, 0x0B, 0x31,
  0xD2, 0xE7, 0x25, 0xE1, 0xDF, 0xC0, 0xD3, 0xF5, 0xFC, 0x41,
  0xE9, 0xD3, 0xF2, 0xE5, 0x32, 0xF9, 0x33, 0xF5, 0xA9, 0xF9,
  0x12, 0xEE, 0xC3, 0xBC, 0xCE, 0xF3, 0xEB, 0xAD, 0x2C, 0x1D,
  0xEF, 0x13, 0x23, 0xF2, 0xD2, 0xCC, 0x1B, 0x4F, 0xFC, 0x1C,
  0xCD, 0x21, 0xC9, 0xDA, 0xE8, 0xBB, 0xBF, 0x22, 0x05, 0x2E,
  0xD3, 0xF7, 0xDE, 0x29, 0xFD, 0x17, 0x2A, 0x65, 0xCE, 0xDB,
  0x1D, 0xD7, 0x0E, 0xBA, 0x2B, 0x2A, 0xFF, 0x05, 0x25, 0x05,
  0xD6, 0x20, 0xCD, 0xFB, 0x2E, 0x08, 0xF8, 0x11, 0xE7, 0xEB,
  0xE5, 0xFE, 0x3E, 0xDD, 0x20, 0xC2, 0xD2, 0xBD, 0xED, 0xE7,
  0xBD, 0xEA, 0x1A, 0x16, 0xCA, 0x23, 0xF8, 0x46, 0xCD, 0x23,
  0x23, 0xDD, 0xDD, 0x2E, 0x0C, 0x02, 0x29, 0xDC, 0xFE, 0xFB,
  0x09, 0xDF, 0x03, 0xC9, 0x2A, 0x25, 0x39, 0x45, 0xF9, 0xE4,
  0xCE, 0xE1, 0x38, 0x01, 0xCE, 0xA1, 0xE9, 0x35, 0x03, 0x10,
  0xB5, 0x18, 0x25, 0x15, 0x2E, 0x41, 0x0C, 0x43, 0xF6, 0x01,
  0x15, 0xFA, 0x2F, 0x11, 0x08, 0x5A, 0x24, 0xFD, 0xFD, 0x2A,
  0xD8, 0xCD, 0xE0, 0xE1, 0x20, 0x15, 0x00, 0x1C, 0xFF, 0xCD,
  0xE6, 0xE0, 0xDB, 0x30, 0xC0, 0xED, 0xE8, 0x21, 0xD9, 0xD4,
  0x0F, 0x31, 0xED, 0xC9, 0x12, 0xCE, 0x03, 0x50, 0xFF, 0x31,
  0x19, 0x12, 0x08, 0xEC, 0xFB, 0x3D, 0x04, 0x2B, 0xC1, 0x1B,
  0xDD, 0xA2, 0x09, 0x37, 0xF5, 0xDE, 0x0A, 0x30, 0x2D, 0x13,
  0x17, 0x2F, 0x0F, 0x3A, 0x11, 0xE5, 0x16, 0xF1, 0x17, 0x2A,
  0xD8, 0x12, 0x19, 0xCE, 0xF3, 0x1E, 0x35, 0x14, 0x50, 0x0E,
  0xC5, 0x02, 0x06, 0xDF, 0x18, 0x0F, 0xBD, 0x1E, 0x18, 0xD9,
  0x10, 0x04, 0xF7, 0x18, 0xED, 0xE4, 0x37, 0xC7, 0x19, 0xCE,
  0xF0, 0x13, 0x14, 0x54, 0xF5, 0xE3, 0x20, 0x1F, 0xDD, 0x04,
  0x1F, 0xEA, 0xFD, 0x3B, 0xD4, 0xF9, 0xFB, 0x2D, 0x01, 0xE1,
  0x08, 0xD8, 0x2D, 0x22, 0x2E, 0xE8, 0xCC, 0x00, 0x1D, 0xFF,
  0x0A, 0x07, 0xEC, 0x23, 0x28, 0xF7, 0x15, 0xEB, 0xDD, 0x26,
  0x3B, 0x11, 0x60, 0x3F, 0x38, 0x41, 0x31, 0xE2, 0x18, 0x23,
  0xAC, 0xBA, 0x38, 0x2E, 0x03, 0xFE, 0xC5, 0x0D, 0x1A, 0xE6,
  0x2E, 0x2E, 0x65, 0x4A, 0x29, 0xD8, 0x22, 0xFE, 0x1D, 0xD3,
  0xBD, 0x1B, 0xE6, 0x01, 0x3C, 0x2D, 0xB7, 0x29, 0x30, 0xE3,
  0x08, 0x4B, 0x7F, 0x11, 0x48, 0xDA, 0x1A, 0xE3, 0x13, 0xB8,
  0xEB, 0xF4, 0xD6, 0xD4, 0x0F, 0x34, 0xB8, 0xFB, 0x3B, 0x18,
  0xC7, 0x2D, 0xFC, 0x3C, 0x04, 0x0A, 0x26, 0xD6, 0xB6, 0xA7,
  0xC8, 0x12, 0xE1, 0xFB, 0xC2, 0xCC, 0xF8, 0xE3, 0x39, 0x18,
  0x2A, 0xFB, 0x36, 0x5C, 0xE2, 0x17, 0x27, 0x24, 0xFE, 0xCD,
  0xD8, 0xD4, 0x3C, 0x3E, 0x01, 0x29, 0xF7, 0x1D, 0x38, 0x1D,
  0xDD, 0x41, 0x00, 0x0C, 0x27, 0xC8, 0xF5, 0xD1, 0xDF, 0x22,
  0xBA, 0xAE, 0xE6, 0xFC, 0xB8, 0xBD, 0x00, 0x23, 0x0C, 0x31,
  0x1F, 0x04, 0x2F, 0x4D, 0xFC, 0x04, 0x01, 0xCC, 0xEC, 0x18,
  0x00, 0x50, 0x3D, 0x28, 0xBE, 0x2F, 0x04, 0x1E, 0x16, 0xFC,
  0x25, 0x26, 0xDD, 0x31, 0xDC, 0xDD, 0xF4, 0x1D, 0xE5, 0xDE,
  0xBC, 0x9D, 0xD5, 0xBB, 0x39, 0xDC, 0xE4, 0xDF, 0xF9, 0x21,
  0xEE, 0x3B, 0x52, 0x05, 0xDF, 0xD9, 0x1D, 0x33, 0x28, 0x1F,
  0xFD, 0x0F, 0x21, 0x3C, 0xEB, 0x03, 0xD8, 0xD8, 0x2B, 0xE7,
  0x0A, 0xE1, 0xEE, 0x53, 0x37, 0x1B, 0x3D, 0xF2, 0x37, 0xEA,
  0x2F, 0x2A, 0xF3, 0xD0, 0xFF, 0x0D, 0x2A, 0x09, 0x2D, 0x4B,
  0xF2, 0xD2, 0xE6, 0xF3, 0xF8, 0x05, 0xEB, 0xC9, 0x17, 0xFB,
  0x1D, 0x0D, 0x2A, 0x2D, 0x0A, 0x03, 0x2C, 0x4A, 0xF2, 0x11,
  0xFD, 0xC5, 0xCE, 0x10, 0x21, 0xD7, 0x09, 0xEA, 0x04, 0x33,
  0xA3, 0x8E, 0x06, 0x09, 0x37, 0x04, 0xFF, 0xF9, 0x27, 0x02,
  0x04, 0x11, 0xF9, 0xF4, 0x16, 0xFA, 0xF5, 0x16, 0xE3, 0x3E,
  0xAB, 0xD6, 0xED, 0x2A, 0xCF, 0x20, 0x3B, 0xEB, 0x01, 0x4B,
  0x10, 0xF3, 0x05, 0xDF, 0xFB, 0x1A, 0xA6, 0xF6, 0x1D, 0x35,
  0xE1, 0xE0, 0x06, 0x43, 0x0B, 0xB8, 0x16, 0x17, 0x54, 0x2D,
  0x00, 0x1D, 0x3C, 0xFC, 0x30, 0xF6, 0x3E, 0xDE, 0x12, 0x27,
  0xF4, 0x12, 0xDF, 0x05, 0xFD, 0xFB, 0x09, 0x03, 0x04, 0x23,
  0x31, 0x63, 0xCC, 0x2D, 0xF0, 0xE9, 0xE6, 0xE0, 0xD4, 0xF6,
  0x0C, 0x34, 0x32, 0x11, 0xBD, 0xD5, 0x4D, 0xFB, 0x00, 0xEB,
  0xDA, 0xC7, 0xEA, 0x2D, 0xE3, 0x1E, 0x35, 0x17, 0xF4, 0x21,
  0x9F, 0xE4, 0x21, 0x29, 0xCA, 0xB1, 0x14, 0x0D, 0x02, 0xBD,
  0x00, 0xEB, 0x1B, 0xEE, 0x26, 0xF8, 0xE1, 0x31, 0x0D, 0xE3,
  0x00, 0x00, 0x00, 0x00, 0x00, 0x00, 0x00, 0x00, 0x00, 0x00,
  0x00, 0x00, 0xD2, 0xFE, 0xFF, 0xFF, 0x04, 0x00, 0x00, 0x00,
  0x08, 0x00, 0x00, 0x00, 0x6F, 0xA3, 0x00, 0x00, 0xCB, 0xB2,
  0x00, 0x00, 0x00, 0x00, 0x00, 0x00, 0x00, 0x00, 0x00, 0x00,
  0x00, 0x00, 0x00, 0x00, 0xF2, 0xFE, 0xFF, 0xFF, 0x04, 0x00,
  0x00, 0x00, 0x09, 0x00, 0x00, 0x00, 0xB2, 0x3C, 0x48, 0xE1,
  0xEB, 0x81, 0xF0, 0x04, 0x5F, 0x00, 0x00, 0x00, 0x00, 0x00,
  0x00, 0x00, 0x00, 0x00, 0x00, 0x00, 0x12, 0xFF, 0xFF, 0xFF,
  0x04, 0x00, 0x00, 0x00, 0x04, 0x00, 0x00, 0x00, 0xB7, 0xF2,
  0x00, 0x00, 0x22, 0xFF, 0xFF, 0xFF, 0x04, 0x00, 0x00, 0x00,
  0x08, 0x00, 0x00, 0x00, 0xFF, 0xFF, 0xFF, 0xFF, 0xD4, 0x03,
  0x00, 0x00, 0x00, 0x00, 0x00, 0x00, 0x00, 0x00, 0x00, 0x00,
  0x00, 0x00, 0x00, 0x00, 0x42, 0xFF, 0xFF, 0xFF, 0x04, 0x00,
  0x00, 0x00, 0x08, 0x00, 0x00, 0x00, 0x35, 0x14, 0x00, 0x00,
  0xCB, 0xEB, 0xFF, 0xFF, 0x00, 0x00, 0x00, 0x00, 0x08, 0xF5,
  0xFF, 0xFF, 0x00, 0x00, 0x00, 0x00, 0x00, 0x00, 0x00, 0x00,
  0x00, 0x00, 0x00, 0x00, 0x18, 0xF5, 0xFF, 0xFF, 0x0F, 0x00,
  0x00, 0x00, 0x4D, 0x4C, 0x49, 0x52, 0x20, 0x43, 0x6F, 0x6E,
  0x76, 0x65, 0x72, 0x74, 0x65, 0x64, 0x2E, 0x00, 0x01, 0x00,
  0x00, 0x00, 0x14, 0x00, 0x00, 0x00, 0x00, 0x00, 0x0E, 0x00,
  0x18, 0x00, 0x04, 0x00, 0x08, 0x00, 0x0C, 0x00, 0x10, 0x00,
  0x14, 0x00, 0x0E, 0x00, 0x00, 0x00, 0xB0, 0x01, 0x00, 0x00,
  0xA4, 0x01, 0x00, 0x00, 0x98, 0x01, 0x00, 0x00, 0x14, 0x00,
  0x00, 0x00, 0x04, 0x00, 0x00, 0x00, 0x04, 0x00, 0x00, 0x00,
  0x6D, 0x61, 0x69, 0x6E, 0x00, 0x00, 0x00, 0x00, 0x05, 0x00,
  0x00, 0x00, 0x2C, 0x01, 0x00, 0x00, 0xCC, 0x00, 0x00, 0x00,
  0x94, 0x00, 0x00, 0x00, 0x50, 0x00, 0x00, 0x00, 0x14, 0x00,
  0x00, 0x00, 0x00, 0x00, 0x0E, 0x00, 0x1A, 0x00, 0x08, 0x00,
  0x0C, 0x00, 0x10, 0x00, 0x07, 0x00, 0x14, 0x00, 0x0E, 0x00,
  0x00, 0x00, 0x00, 0x00, 0x00, 0x09, 0x04, 0x00, 0x00, 0x00,
  0x24, 0x00, 0x00, 0x00, 0x18, 0x00, 0x00, 0x00, 0x0C, 0x00,
  0x00, 0x00, 0x00, 0x00, 0x06, 0x00, 0x08, 0x00, 0x04, 0x00,
  0x06, 0x00, 0x00, 0x00, 0x00, 0x00, 0x80, 0x3F, 0x01, 0x00,
  0x00, 0x00, 0x0C, 0x00, 0x00, 0x00, 0x01, 0x00, 0x00, 0x00,
  0x0B, 0x00, 0x00, 0x00, 0x9A, 0xFF, 0xFF, 0xFF, 0x00, 0x00,
  0x00, 0x08, 0x03, 0x00, 0x00, 0x00, 0x18, 0x00, 0x00, 0x00,
  0x0C, 0x00, 0x00, 0x00, 0x04, 0x00, 0x00, 0x00, 0xE4, 0xF5,
  0xFF, 0xFF, 0x01, 0x00, 0x00, 0x00, 0x0B, 0x00, 0x00, 0x00,
  0x03, 0x00, 0x00, 0x00, 0x0A, 0x00, 0x00, 0x00, 0x06, 0x00,
  0x00, 0x00, 0x01, 0x00, 0x00, 0x00, 0x00, 0x00, 0x0A, 0x00,
  0x10, 0x00, 0x04, 0x00, 0x08, 0x00, 0x0C, 0x00, 0x0A, 0x00,
  0x00, 0x00, 0x02, 0x00, 0x00, 0x00, 0x10, 0x00, 0x00, 0x00,
  0x04, 0x00, 0x00, 0x00, 0x01, 0x00, 0x00, 0x00, 0x0A, 0x00,
  0x00, 0x00, 0x02, 0x00, 0x00, 0x00, 0x09, 0x00, 0x00, 0x00,
  0x02, 0x00, 0x00, 0x00, 0x00, 0x00, 0x0E, 0x00, 0x18, 0x00,
  0x08, 0x00, 0x0C, 0x00, 0x10, 0x00, 0x07, 0x00, 0x14, 0x00,
  0x0E, 0x00, 0x00, 0x00, 0x00, 0x00, 0x00, 0x01, 0x01, 0x00,
  0x00, 0x00, 0x30, 0x00, 0x00, 0x00, 0x24, 0x00, 0x00, 0x00,
  0x10, 0x00, 0x00, 0x00, 0x0C, 0x00, 0x10, 0x00, 0x00, 0x00,
  0x08, 0x00, 0x0C, 0x00, 0x07, 0x00, 0x0C, 0x00, 0x00, 0x00,
  0x00, 0x00, 0x00, 0x01, 0x01, 0x00, 0x00, 0x00, 0x01, 0x00,
  0x00, 0x00, 0x01, 0x00, 0x00, 0x00, 0x09, 0x00, 0x00, 0x00,
  0x03, 0x00, 0x00, 0x00, 0x08, 0x00, 0x00, 0x00, 0x07, 0x00,
  0x00, 0x00, 0x05, 0x00, 0x00, 0x00, 0x00, 0x00, 0x0E, 0x00,
  0x16, 0x00, 0x00, 0x00, 0x08, 0x00, 0x0C, 0x00, 0x07, 0x00,
  0x10, 0x00, 0x0E, 0x00, 0x00, 0x00, 0x00, 0x00, 0x00, 0x02,
  0x38, 0x00, 0x00, 0x00, 0x2C, 0x00, 0x00, 0x00, 0x14, 0x00,
  0x00, 0x00, 0x00, 0x00, 0x0E, 0x00, 0x14, 0x00, 0x00, 0x00,
  0x08, 0x00, 0x0C, 0x00, 0x10, 0x00, 0x07, 0x00, 0x0E, 0x00,
  0x00, 0x00, 0x00, 0x00, 0x00, 0x01, 0x01, 0x00, 0x00, 0x00,
  0x01, 0x00, 0x00, 0x00, 0x01, 0x00, 0x00, 0x00, 0x01, 0x00,
  0x00, 0x00, 0x08, 0x00, 0x00, 0x00, 0x03, 0x00, 0x00, 0x00,
  0x00, 0x00, 0x00, 0x00, 0x04, 0x00, 0x00, 0x00, 0x03, 0x00,
  0x00, 0x00, 0x01, 0x00, 0x00, 0x00, 0x0C, 0x00, 0x00, 0x00,
  0x01, 0x00, 0x00, 0x00, 0x00, 0x00, 0x00, 0x00, 0x0D, 0x00,
  0x00, 0x00, 0xD8, 0x09, 0x00, 0x00, 0x3C, 0x09, 0x00, 0x00,
  0xE0, 0x08, 0x00, 0x00, 0xC0, 0x07, 0x00, 0x00, 0x7C, 0x06,
  0x00, 0x00, 0x58, 0x05, 0x00, 0x00, 0xD4, 0x04, 0x00, 0x00,
  0x38, 0x04, 0x00, 0x00, 0xDC, 0x02, 0x00, 0x00, 0x98, 0x01,
  0x00, 0x00, 0x04, 0x01, 0x00, 0x00, 0x70, 0x00, 0x00, 0x00,
  0x04, 0x00, 0x00, 0x00, 0x70, 0xF6, 0xFF, 0xFF, 0x00, 0x00,
  0x00, 0x09, 0x54, 0x00, 0x00, 0x00, 0x0D, 0x00, 0x00, 0x00,
  0x3C, 0x00, 0x00, 0x00, 0x14, 0x00, 0x00, 0x00, 0x04, 0x00,
  0x00, 0x00, 0x02, 0x00, 0x00, 0x00, 0xFF, 0xFF, 0xFF, 0xFF,
  0x02, 0x00, 0x00, 0x00, 0x04, 0xF7, 0xFF, 0xFF, 0x18, 0x00,
  0x00, 0x00, 0x04, 0x00, 0x00, 0x00, 0x01, 0x00, 0x00, 0x00,
  0x80, 0xFF, 0xFF, 0xFF, 0xFF, 0xFF, 0xFF, 0xFF, 0x00, 0x00,
  0x00, 0x00, 0x01, 0x00, 0x00, 0x00, 0x00, 0x00, 0x80, 0x3B,
  0x08, 0x00, 0x00, 0x00, 0x49, 0x64, 0x65, 0x6E, 0x74, 0x69,
  0x74, 0x79, 0x00, 0x00, 0x00, 0x00, 0x02, 0x00, 0x00, 0x00,
  0x01, 0x00, 0x00, 0x00, 0x02, 0x00, 0x00, 0x00, 0xD8, 0xF6,
  0xFF, 0xFF, 0x00, 0x00, 0x00, 0x09, 0x7C, 0x00, 0x00, 0x00,
  0x0C, 0x00, 0x00, 0x00, 0x54, 0x00, 0x00, 0x00, 0x14, 0x00,
  0x00, 0x00, 0x04, 0x00, 0x00, 0x00, 0x02, 0x00, 0x00, 0x00,
  0xFF, 0xFF, 0xFF, 0xFF, 0x02, 0x00, 0x00, 0x00, 0xBC, 0xF6,
  0xFF, 0xFF, 0x30, 0x00, 0x00, 0x00, 0x24, 0x00, 0x00, 0x00,
  0x18, 0x00, 0x00, 0x00, 0x04, 0x00, 0x00, 0x00, 0x01, 0x00,
  0x00, 0x00, 0x33, 0x00, 0x00, 0x00, 0x00, 0x00, 0x00, 0x00,
  0x00, 0x00, 0x00, 0x00, 0x01, 0x00, 0x00, 0x00, 0x5B, 0xB5,
  0x00, 0x3C, 0x01, 0x00, 0x00, 0x00, 0xE8, 0x80, 0x19, 0x3F,
  0x01, 0x00, 0x00, 0x00, 0xD8, 0xA8, 0xB3, 0xBF, 0x1A, 0x00,
  0x00, 0x00, 0x66, 0x75, 0x6E, 0x63, 0x74, 0x69, 0x6F, 0x6E,
  0x61, 0x6C, 0x5F, 0x31, 0x2F, 0x64, 0x65, 0x6E, 0x73, 0x65,
  0x2F, 0x42, 0x69, 0x61, 0x73, 0x41, 0x64, 0x64, 0x00, 0x00,
  0x02, 0x00, 0x00, 0x00, 0x01, 0x00, 0x00, 0x00, 0x02, 0x00,
  0x00, 0x00, 0x68, 0xF7, 0xFF, 0xFF, 0x00, 0x00, 0x00, 0x09,
  0x7C, 0x00, 0x00, 0x00, 0x0B, 0x00, 0x00, 0x00, 0x50, 0x00,
  0x00, 0x00, 0x14, 0x00, 0x00, 0x00, 0x04, 0x00, 0x00, 0x00,
  0x02, 0x00, 0x00, 0x00, 0xFF, 0xFF, 0xFF, 0xFF, 0xD4, 0x03,
  0x00, 0x00, 0x4C, 0xF7, 0xFF, 0xFF, 0x2C, 0x00, 0x00, 0x00,
  0x20, 0x00, 0x00, 0x00, 0x14, 0x00, 0x00, 0x00, 0x04, 0x00,
  0x00, 0x00, 0x01, 0x00, 0x00, 0x00, 0x80, 0xFF, 0xFF, 0xFF,
  0xFF, 0xFF, 0xFF, 0xFF, 0x01, 0x00, 0x00, 0x00, 0x15, 0x8B,
  0x01, 0x3B, 0x01, 0x00, 0x00, 0x00, 0x8A, 0x09, 0x01, 0x3F,
  0x01, 0x00, 0x00, 0x00, 0x00, 0x00, 0x00, 0x00, 0x1C, 0x00,
  0x00, 0x00, 0x66, 0x75, 0x6E, 0x63, 0x74, 0x69, 0x6F, 0x6E,
  0x61, 0x6C, 0x5F, 0x31, 0x2F, 0x66, 0x6C, 0x61, 0x74, 0x74,
  0x65, 0x6E, 0x2F, 0x52, 0x65, 0x73, 0x68, 0x61, 0x70, 0x65,
  0x00, 0x00, 0x00, 0x00, 0x02, 0x00, 0x00, 0x00, 0x01, 0x00,
  0x00, 0x00, 0xD4, 0x03, 0x00, 0x00, 0xF8, 0xF7, 0xFF, 0xFF,
  0x00, 0x00, 0x00, 0x09, 0x24, 0x01, 0x00, 0x00, 0x0A, 0x00,
  0x00, 0x00, 0x5C, 0x00, 0x00, 0x00, 0x1C, 0x00, 0x00, 0x00,
  0x04, 0x00, 0x00, 0x00, 0x04, 0x00, 0x00, 0x00, 0xFF, 0xFF,
  0xFF, 0xFF, 0x31, 0x00, 0x00, 0x00, 0x0A, 0x00, 0x00, 0x00,
  0x02, 0x00, 0x00, 0x00, 0xE4, 0xF7, 0xFF, 0xFF, 0x30, 0x00,
  0x00, 0x00, 0x24, 0x00, 0x00, 0x00, 0x18, 0x00, 0x00, 0x00,
  0x04, 0x00, 0x00, 0x00, 0x01, 0x00, 0x00, 0x00, 0x80, 0xFF,
  0xFF, 0xFF, 0xFF, 0xFF, 0xFF, 0xFF, 0x00, 0x00, 0x00, 0x00,
  0x01, 0x00, 0x00, 0x00, 0x15, 0x8B, 0x01, 0x3B, 0x01, 0x00,
  0x00, 0x00, 0x8A, 0x09, 0x01, 0x3F, 0x01, 0x00, 0x00, 0x00,
  0x00, 0x00, 0x00, 0x00, 0xB9, 0x00, 0x00, 0x00, 0x66, 0x75,
  0x6E, 0x63, 0x74, 0x69, 0x6F, 0x6E, 0x61, 0x6C, 0x5F, 0x31,
  0x2F, 0x72, 0x65, 0x5F, 0x6C, 0x75, 0x5F, 0x31, 0x2F, 0x52,
  0x65, 0x6C, 0x75, 0x3B, 0x66, 0x75, 0x6E, 0x63, 0x74, 0x69,
  0x6F, 0x6E, 0x61, 0x6C, 0x5F, 0x31, 0x2F, 0x62, 0x61, 0x74,
  0x63, 0x68, 0x5F, 0x6E, 0x6F, 0x72, 0x6D, 0x61, 0x6C, 0x69,
  0x7A, 0x61, 0x74, 0x69, 0x6F, 0x6E, 0x5F, 0x31, 0x2F, 0x46,
  0x75, 0x73, 0x65, 0x64, 0x42, 0x61, 0x74, 0x63, 0x68, 0x4E,
  0x6F, 0x72, 0x6D, 0x56, 0x33, 0x3B, 0x66, 0x75, 0x6E, 0x63,
  0x74, 0x69, 0x6F, 0x6E, 0x61, 0x6C, 0x5F, 0x31, 0x2F, 0x63,
  0x6F, 0x6E, 0x76, 0x32, 0x64, 0x2F, 0x42, 0x69, 0x61, 0x73,
  0x41, 0x64, 0x64, 0x2F, 0x52, 0x65, 0x61, 0x64, 0x56, 0x61,
  0x72, 0x69, 0x61, 0x62, 0x6C, 0x65, 0x4F, 0x70, 0x2F, 0x72,
  0x65, 0x73, 0x6F, 0x75, 0x72, 0x63, 0x65, 0x3B, 0x66, 0x75,
  0x6E, 0x63, 0x74, 0x69, 0x6F, 0x6E, 0x61, 0x6C, 0x5F, 0x31,
  0x2F, 0x63, 0x6F, 0x6E, 0x76, 0x32, 0x64, 0x2F, 0x42, 0x69,
  0x61, 0x73, 0x41, 0x64, 0x64, 0x3B, 0x66, 0x75, 0x6E, 0x63,
  0x74, 0x69, 0x6F, 0x6E, 0x61, 0x6C, 0x5F, 0x31, 0x2F, 0x63,
  0x6F, 0x6E, 0x76, 0x32, 0x64, 0x2F, 0x43, 0x6F, 0x6E, 0x76,
  0x32, 0x44, 0x31, 0x00, 0x00, 0x00, 0x04, 0x00, 0x00, 0x00,
  0x01, 0x00, 0x00, 0x00, 0x31, 0x00, 0x00, 0x00, 0x0A, 0x00,
  0x00, 0x00, 0x02, 0x00, 0x00, 0x00, 0x38, 0xF9, 0xFF, 0xFF,
  0x00, 0x00, 0x00, 0x09, 0x3C, 0x01, 0x00, 0x00, 0x09, 0x00,
  0x00, 0x00, 0x58, 0x00, 0x00, 0x00, 0x1C, 0x00, 0x00, 0x00,
  0x04, 0x00, 0x00, 0x00, 0x04, 0x00, 0x00, 0x00, 0xFF, 0xFF,
  0xFF, 0xFF, 0x31, 0x00, 0x00, 0x00, 0x0A, 0x00, 0x00, 0x00,
  0x01, 0x00, 0x00, 0x00, 0x24, 0xF9, 0xFF, 0xFF, 0x2C, 0x00,
  0x00, 0x00, 0x20, 0x00, 0x00, 0x00, 0x14, 0x00, 0x00, 0x00,
  0x04, 0x00, 0x00, 0x00, 0x01, 0x00, 0x00, 0x00, 0x80, 0xFF,
  0xFF, 0xFF, 0xFF, 0xFF, 0xFF, 0xFF, 0x01, 0x00, 0x00, 0x00,
  0x90, 0xB1, 0x61, 0x3A, 0x01, 0x00, 0x00, 0x00, 0xDE, 0xCF,
  0x60, 0x3E, 0x01, 0x00, 0x00, 0x00, 0x00, 0x00, 0x00, 0x00,
  0xD6, 0x00, 0x00, 0x00, 0x66, 0x75, 0x6E, 0x63, 0x74, 0x69,
  0x6F, 0x6E, 0x61, 0x6C, 0x5F, 0x31, 0x2F, 0x72, 0x65, 0x5F,
  0x6C, 0x75, 0x2F, 0x52, 0x65, 0x6C, 0x75, 0x3B, 0x66, 0x75,
  0x6E, 0x63, 0x74, 0x69, 0x6F, 0x6E, 0x61, 0x6C, 0x5F, 0x31,
  0x2F, 0x62, 0x61, 0x74, 0x63, 0x68, 0x5F, 0x6E, 0x6F, 0x72,
  0x6D, 0x61, 0x6C, 0x69, 0x7A, 0x61, 0x74, 0x69, 0x6F, 0x6E,
  0x2F, 0x46, 0x75, 0x73, 0x65, 0x64, 0x42, 0x61, 0x74, 0x63,
  0x68, 0x4E, 0x6F, 0x72, 0x6D, 0x56, 0x33, 0x3B, 0x66, 0x75,
  0x6E, 0x63, 0x74, 0x69, 0x6F, 0x6E, 0x61, 0x6C, 0x5F, 0x31,
  0x2F, 0x64, 0x65, 0x70, 0x74, 0x68, 0x77, 0x69, 0x73, 0x65,
  0x5F, 0x63, 0x6F, 0x6E, 0x76, 0x32, 0x64, 0x2F, 0x64, 0x65,
  0x70, 0x74, 0x68, 0x77, 0x69, 0x73, 0x65, 0x3B, 0x66, 0x75,
  0x6E, 0x63, 0x74, 0x69, 0x6F, 0x6E, 0x61, 0x6C, 0x5F, 0x31,
  0x2F, 0x64, 0x65, 0x70, 0x74, 0x68, 0x77, 0x69, 0x73, 0x65,
  0x5F, 0x63, 0x6F, 0x6E, 0x76, 0x32, 0x64, 0x2F, 0x42, 0x69,
  0x61, 0x73, 0x41, 0x64, 0x64, 0x3B, 0x66, 0x75, 0x6E, 0x63,
  0x74, 0x69, 0x6F, 0x6E, 0x61, 0x6C, 0x5F, 0x31, 0x2F, 0x64,
  0x65, 0x70, 0x74, 0x68, 0x77, 0x69, 0x73, 0x65, 0x5F, 0x63,
  0x6F, 0x6E, 0x76, 0x32, 0x64, 0x2F, 0x42, 0x69, 0x61, 0x73,
  0x41, 0x64, 0x64, 0x2F, 0x52, 0x65, 0x61, 0x64, 0x56, 0x61,
  0x72, 0x69, 0x61, 0x62, 0x6C, 0x65, 0x4F, 0x70, 0x2F, 0x72,
  0x65, 0x73, 0x6F, 0x75, 0x72, 0x63, 0x65, 0x31, 0x00, 0x00,
  0x04, 0x00, 0x00, 0x00, 0x01, 0x00, 0x00, 0x00, 0x31, 0x00,
  0x00, 0x00, 0x0A, 0x00, 0x00, 0x00, 0x01, 0x00, 0x00, 0x00,
  0x22, 0xFB, 0xFF, 0xFF, 0x00, 0x00, 0x00, 0x09, 0x7C, 0x00,
  0x00, 0x00, 0x08, 0x00, 0x00, 0x00, 0x54, 0x00, 0x00, 0x00,
  0x04, 0x00, 0x00, 0x00, 0x64, 0xFA, 0xFF, 0xFF, 0x3C, 0x00,
  0x00, 0x00, 0x2C, 0x00, 0x00, 0x00, 0x1C, 0x00, 0x00, 0x00,
  0x04, 0x00, 0x00, 0x00, 0x02, 0x00, 0x00, 0x00, 0x00, 0x00,
  0x00, 0x00, 0x00, 0x00, 0x00, 0x00, 0x00, 0x00, 0x00, 0x00,
  0x00, 0x00, 0x00, 0x00, 0x02, 0x00, 0x00, 0x00, 0x55, 0xBE,
  0x6F, 0x3C, 0xCB, 0xE7, 0x15, 0x3C, 0x02, 0x00, 0x00, 0x00,
  0xD8, 0xDE, 0xED, 0xBF, 0xFB, 0xBB, 0x94, 0xBF, 0x02, 0x00,
  0x00, 0x00, 0xD8, 0xDE, 0xED, 0xBF, 0xFB, 0xBB, 0x94, 0xBF,
  0x1A, 0x00, 0x00, 0x00, 0x66, 0x75, 0x6E, 0x63, 0x74, 0x69,
  0x6F, 0x6E, 0x61, 0x6C, 0x5F, 0x31, 0x2F, 0x63, 0x6F, 0x6E,
  0x76, 0x32, 0x64, 0x2F, 0x43, 0x6F, 0x6E, 0x76, 0x32, 0x44,
  0x00, 0x00, 0x04, 0x00, 0x00, 0x00, 0x02, 0x00, 0x00, 0x00,
  0x01, 0x00, 0x00, 0x00, 0x01, 0x00, 0x00, 0x00, 0x01, 0x00,
  0x00, 0x00, 0xBA, 0xFB, 0xFF, 0xFF, 0x00, 0x00, 0x00, 0x09,
  0x6C, 0x00, 0x00, 0x00, 0x07, 0x00, 0x00, 0x00, 0x44, 0x00,
  0x00, 0x00, 0x04, 0x00, 0x00, 0x00, 0xFC, 0xFA, 0xFF, 0xFF,
  0x30, 0x00, 0x00, 0x00, 0x24, 0x00, 0x00, 0x00, 0x18, 0x00,
  0x00, 0x00, 0x04, 0x00, 0x00, 0x00, 0x01, 0x00, 0x00, 0x00,
  0x00, 0x00, 0x00, 0x00, 0x00, 0x00, 0x00, 0x00, 0x00, 0x00,
  0x00, 0x00, 0x01, 0x00, 0x00, 0x00, 0x3F, 0xAD, 0xA5, 0x3A,
  0x01, 0x00, 0x00, 0x00, 0xE5, 0x61, 0x24, 0x3E, 0x01, 0x00,
  0x00, 0x00, 0xA1, 0xEE, 0x22, 0xBE, 0x19, 0x00, 0x00, 0x00,
  0x66, 0x75, 0x6E, 0x63, 0x74, 0x69, 0x6F, 0x6E, 0x61, 0x6C,
  0x5F, 0x31, 0x2F, 0x64, 0x65, 0x6E, 0x73, 0x65, 0x2F, 0x4D,
  0x61, 0x74, 0x4D, 0x75, 0x6C, 0x00, 0x00, 0x00, 0x02, 0x00,
  0x00, 0x00, 0x02, 0x00, 0x00, 0x00, 0xD4, 0x03, 0x00, 0x00,
  0x3A, 0xFC, 0xFF, 0xFF, 0x00, 0x00, 0x00, 0x02, 0x00, 0x01,
  0x00, 0x00, 0x06, 0x00, 0x00, 0x00, 0x38, 0x00, 0x00, 0x00,
  0x04, 0x00, 0x00, 0x00, 0x2C, 0xFC, 0xFF, 0xFF, 0x20, 0x00,
  0x00, 0x00, 0x04, 0x00, 0x00, 0x00, 0x02, 0x00, 0x00, 0x00,
  0x00, 0x00, 0x00, 0x00, 0x00, 0x00, 0x00, 0x00, 0x00, 0x00,
  0x00, 0x00, 0x00, 0x00, 0x00, 0x00, 0x00, 0x00, 0x00, 0x00,
  0x02, 0x00, 0x00, 0x00, 0x92, 0x5C, 0x53, 0x37, 0xB3, 0x28,
  0x04, 0x37, 0xB8, 0x00, 0x00, 0x00, 0x66, 0x75, 0x6E, 0x63,
  0x74, 0x69, 0x6F, 0x6E, 0x61, 0x6C, 0x5F, 0x31, 0x2F, 0x72,
  0x65, 0x5F, 0x6C, 0x75, 0x5F, 0x31, 0x2F, 0x52, 0x65, 0x6C,
  0x75, 0x3B, 0x66, 0x75, 0x6E, 0x63, 0x74, 0x69, 0x6F, 0x6E,
  0x61, 0x6C, 0x5F, 0x31, 0x2F, 0x62, 0x61, 0x74, 0x63, 0x68,
  0x5F, 0x6E, 0x6F, 0x72, 0x6D, 0x61, 0x6C, 0x69, 0x7A, 0x61,
  0x74, 0x69, 0x6F, 0x6E, 0x5F, 0x31, 0x2F, 0x46, 0x75, 0x73,
  0x65, 0x64, 0x42, 0x61, 0x74, 0x63, 0x68, 0x4E, 0x6F, 0x72,
  0x6D, 0x56, 0x33, 0x3B, 0x66, 0x75, 0x6E, 0x63, 0x74, 0x69,
  0x6F, 0x6E, 0x61, 0x6C, 0x5F, 0x31, 0x2F, 0x63, 0x6F, 0x6E,
  0x76, 0x32, 0x64, 0x2F, 0x42, 0x69, 0x61, 0x73, 0x41, 0x64,
  0x64, 0x2F, 0x52, 0x65, 0x61, 0x64, 0x56, 0x61, 0x72, 0x69,
  0x61, 0x62, 0x6C, 0x65, 0x4F, 0x70, 0x2F, 0x72, 0x65, 0x73,
  0x6F, 0x75, 0x72, 0x63, 0x65, 0x3B, 0x66, 0x75, 0x6E, 0x63,
  0x74, 0x69, 0x6F, 0x6E, 0x61, 0x6C, 0x5F, 0x31, 0x2F, 0x63,
  0x6F, 0x6E, 0x76, 0x32, 0x64, 0x2F, 0x42, 0x69, 0x61, 0x73,
  0x41, 0x64, 0x64, 0x3B, 0x66, 0x75, 0x6E, 0x63, 0x74, 0x69,
  0x6F, 0x6E, 0x61, 0x6C, 0x5F, 0x31, 0x2F, 0x63, 0x6F, 0x6E,
  0x76, 0x32, 0x64, 0x2F, 0x43, 0x6F, 0x6E, 0x76, 0x32, 0x44,
  0x00, 0x00, 0x00, 0x00, 0x01, 0x00, 0x00, 0x00, 0x02, 0x00,
  0x00, 0x00, 0x00, 0x00, 0x0E, 0x00, 0x1A, 0x00, 0x08, 0x00,
  0x07, 0x00, 0x0C, 0x00, 0x10, 0x00, 0x14, 0x00, 0x0E, 0x00,
  0x00, 0x00, 0x00, 0x00, 0x00, 0x09, 0x24, 0x01, 0x00, 0x00,
  0x05, 0x00, 0x00, 0x00, 0x58, 0x00, 0x00, 0x00, 0x18, 0x00,
  0x00, 0x00, 0x00, 0x00, 0x12, 0x00, 0x18, 0x00, 0x04, 0x00,
  0x08, 0x00, 0x0C, 0x00, 0x10, 0x00, 0x00, 0x00, 0x00, 0x00,
  0x14, 0x00, 0x12, 0x00, 0x00, 0x00, 0x30, 0x00, 0x00, 0x00,
  0x24, 0x00, 0x00, 0x00, 0x18, 0x00, 0x00, 0x00, 0x08, 0x00,
  0x00, 0x00, 0x03, 0x00, 0x00, 0x00, 0x01, 0x00, 0x00, 0x00,
  0x00, 0x00, 0x00, 0x00, 0x00, 0x00, 0x00, 0x00, 0x01, 0x00,
  0x00, 0x00, 0xB9, 0xD6, 0x01, 0x3A, 0x01, 0x00, 0x00, 0x00,
  0xD1, 0x05, 0x40, 0x3D, 0x01, 0x00, 0x00, 0x00, 0x0C, 0xD3,
  0x80, 0xBD, 0xBD, 0x00, 0x00, 0x00, 0x66, 0x75, 0x6E, 0x63,
  0x74, 0x69, 0x6F, 0x6E, 0x61, 0x6C, 0x5F, 0x31, 0x2F, 0x62,
  0x61, 0x74, 0x63, 0x68, 0x5F, 0x6E, 0x6F, 0x72, 0x6D, 0x61,
  0x6C, 0x69, 0x7A, 0x61, 0x74, 0x69, 0x6F, 0x6E, 0x2F, 0x46,
  0x75, 0x73, 0x65, 0x64, 0x42, 0x61, 0x74, 0x63, 0x68, 0x4E,
  0x6F, 0x72, 0x6D, 0x56, 0x33, 0x3B, 0x66, 0x75, 0x6E, 0x63,
  0x74, 0x69, 0x6F, 0x6E, 0x61, 0x6C, 0x5F, 0x31, 0x2F, 0x64,
  0x65, 0x70, 0x74, 0x68, 0x77, 0x69, 0x73, 0x65, 0x5F, 0x63,
  0x6F, 0x6E, 0x76, 0x32, 0x64, 0x2F, 0x64, 0x65, 0x70, 0x74,
  0x68, 0x77, 0x69, 0x73, 0x65, 0x3B, 0x66, 0x75, 0x6E, 0x63,
  0x74, 0x69, 0x6F, 0x6E, 0x61, 0x6C, 0x5F, 0x31, 0x2F, 0x64,
  0x65, 0x70, 0x74, 0x68, 0x77, 0x69, 0x73, 0x65, 0x5F, 0x63,
  0x6F, 0x6E, 0x76, 0x32, 0x64, 0x2F, 0x42, 0x69, 0x61, 0x73,
  0x41, 0x64, 0x64, 0x3B, 0x66, 0x75, 0x6E, 0x63, 0x74, 0x69,
  0x6F, 0x6E, 0x61, 0x6C, 0x5F, 0x31, 0x2F, 0x64, 0x65, 0x70,
  0x74, 0x68, 0x77, 0x69, 0x73, 0x65, 0x5F, 0x63, 0x6F, 0x6E,
  0x76, 0x32, 0x64, 0x2F, 0x42, 0x69, 0x61, 0x73, 0x41, 0x64,
  0x64, 0x2F, 0x52, 0x65, 0x61, 0x64, 0x56, 0x61, 0x72, 0x69,
  0x61, 0x62, 0x6C, 0x65, 0x4F, 0x70, 0x2F, 0x72, 0x65, 0x73,
  0x6F, 0x75, 0x72, 0x63, 0x65, 0x00, 0x00, 0x00, 0x04, 0x00,
  0x00, 0x00, 0x01, 0x00, 0x00, 0x00, 0x03, 0x00, 0x00, 0x00,
  0x03, 0x00, 0x00, 0x00, 0x01, 0x00, 0x00, 0x00, 0x9A, 0xFE,
  0xFF, 0xFF, 0x00, 0x00, 0x00, 0x02, 0x0C, 0x01, 0x00, 0x00,
  0x04, 0x00, 0x00, 0x00, 0x28, 0x00, 0x00, 0x00, 0x04, 0x00,
  0x00, 0x00, 0x8C, 0xFE, 0xFF, 0xFF, 0x14, 0x00, 0x00, 0x00,
  0x04, 0x00, 0x00, 0x00, 0x01, 0x00, 0x00, 0x00, 0x00, 0x00,
  0x00, 0x00, 0x00, 0x00, 0x00, 0x00, 0x01, 0x00, 0x00, 0x00,
  0x77, 0x58, 0x02, 0x36, 0xD5, 0x00, 0x00, 0x00, 0x66, 0x75,
  0x6E, 0x63, 0x74, 0x69, 0x6F, 0x6E, 0x61, 0x6C, 0x5F, 0x31,
  0x2F, 0x72, 0x65, 0x5F, 0x6C, 0x75, 0x2F, 0x52, 0x65, 0x6C,
  0x75, 0x3B, 0x66, 0x75, 0x6E, 0x63, 0x74, 0x69, 0x6F, 0x6E,
  0x61, 0x6C, 0x5F, 0x31, 0x2F, 0x62, 0x61, 0x74, 0x63, 0x68,
  0x5F, 0x6E, 0x6F, 0x72, 0x6D, 0x61, 0x6C, 0x69, 0x7A, 0x61,
  0x74, 0x69, 0x6F, 0x6E, 0x2F, 0x46, 0x75, 0x73, 0x65, 0x64,
  0x42, 0x61, 0x74, 0x63, 0x68, 0x4E, 0x6F, 0x72, 0x6D, 0x56,
  0x33, 0x3B, 0x66, 0x75, 0x6E, 0x63, 0x74, 0x69, 0x6F, 0x6E,
  0x61, 0x6C, 0x5F, 0x31, 0x2F, 0x64, 0x65, 0x70, 0x74, 0x68,
  0x77, 0x69, 0x73, 0x65, 0x5F, 0x63, 0x6F, 0x6E, 0x76, 0x32,
  0x64, 0x2F, 0x64, 0x65, 0x70, 0x74, 0x68, 0x77, 0x69, 0x73,
  0x65, 0x3B, 0x66, 0x75, 0x6E, 0x63, 0x74, 0x69, 0x6F, 0x6E,
  0x61, 0x6C, 0x5F, 0x31, 0x2F, 0x64, 0x65, 0x70, 0x74, 0x68,
  0x77, 0x69, 0x73, 0x65, 0x5F, 0x63, 0x6F, 0x6E, 0x76, 0x32,
  0x64, 0x2F, 0x42, 0x69, 0x61, 0x73, 0x41, 0x64, 0x64, 0x3B,
  0x66, 0x75, 0x6E, 0x63, 0x74, 0x69, 0x6F, 0x6E, 0x61, 0x6C,
  0x5F, 0x31, 0x2F, 0x64, 0x65, 0x70, 0x74, 0x68, 0x77, 0x69,
  0x73, 0x65, 0x5F, 0x63, 0x6F, 0x6E, 0x76, 0x32, 0x64, 0x2F,
  0x42, 0x69, 0x61, 0x73, 0x41, 0x64, 0x64, 0x2F, 0x52, 0x65,
  0x61, 0x64, 0x56, 0x61, 0x72, 0x69, 0x61, 0x62, 0x6C, 0x65,
  0x4F, 0x70, 0x2F, 0x72, 0x65, 0x73, 0x6F, 0x75, 0x72, 0x63,
  0x65, 0x00, 0x00, 0x00, 0x01, 0x00, 0x00, 0x00, 0x01, 0x00,
  0x00, 0x00, 0xB6, 0xFF, 0xFF, 0xFF, 0x00, 0x00, 0x00, 0x02,
  0x38, 0x00, 0x00, 0x00, 0x03, 0x00, 0x00, 0x00, 0x10, 0x00,
  0x00, 0x00, 0x08, 0x00, 0x00, 0x00, 0x04, 0x00, 0x04, 0x00,
  0x04, 0x00, 0x00, 0x00, 0x1A, 0x00, 0x00, 0x00, 0x66, 0x75,
  0x6E, 0x63, 0x74, 0x69, 0x6F, 0x6E, 0x61, 0x6C, 0x5F, 0x31,
  0x2F, 0x66, 0x6C, 0x61, 0x74, 0x74, 0x65, 0x6E, 0x2F, 0x43,
  0x6F, 0x6E, 0x73, 0x74, 0x00, 0x00, 0x01, 0x00, 0x00, 0x00,
  0x02, 0x00, 0x00, 0x00, 0x00, 0x00, 0x0E, 0x00, 0x18, 0x00,
  0x08, 0x00, 0x07, 0x00, 0x0C, 0x00, 0x10, 0x00, 0x14, 0x00,
  0x0E, 0x00, 0x00, 0x00, 0x00, 0x00, 0x00, 0x02, 0x74, 0x00,
  0x00, 0x00, 0x02, 0x00, 0x00, 0x00, 0x34, 0x00, 0x00, 0x00,
  0x10, 0x00, 0x00, 0x00, 0x0C, 0x00, 0x0C, 0x00, 0x00, 0x00,
  0x00, 0x00, 0x04, 0x00, 0x08, 0x00, 0x0C, 0x00, 0x00, 0x00,
  0x14, 0x00, 0x00, 0x00, 0x04, 0x00, 0x00, 0x00, 0x01, 0x00,
  0x00, 0x00, 0x00, 0x00, 0x00, 0x00, 0x00, 0x00, 0x00, 0x00,
  0x01, 0x00, 0x00, 0x00, 0x9F, 0xAC, 0x27, 0x36, 0x32, 0x00,
  0x00, 0x00, 0x66, 0x75, 0x6E, 0x63, 0x74, 0x69, 0x6F, 0x6E,
  0x61, 0x6C, 0x5F, 0x31, 0x2F, 0x64, 0x65, 0x6E, 0x73, 0x65,
  0x2F, 0x42, 0x69, 0x61, 0x73, 0x41, 0x64, 0x64, 0x2F, 0x52,
  0x65, 0x61, 0x64, 0x56, 0x61, 0x72, 0x69, 0x61, 0x62, 0x6C,
  0x65, 0x4F, 0x70, 0x2F, 0x72, 0x65, 0x73, 0x6F, 0x75, 0x72,
  0x63, 0x65, 0x00, 0x00, 0x01, 0x00, 0x00, 0x00, 0x02, 0x00,
  0x00, 0x00, 0x14, 0x00, 0x1C, 0x00, 0x08, 0x00, 0x07, 0x00,
  0x0C, 0x00, 0x10, 0x00, 0x14, 0x00, 0x00, 0x00, 0x00, 0x00,
  0x18, 0x00, 0x14, 0x00, 0x00, 0x00, 0x00, 0x00, 0x00, 0x09,
  0x7C, 0x00, 0x00, 0x00, 0x01, 0x00, 0x00, 0x00, 0x68, 0x00,
  0x00, 0x00, 0x28, 0x00, 0x00, 0x00, 0x04, 0x00, 0x00, 0x00,
  0x04, 0x00, 0x00, 0x00, 0xFF, 0xFF, 0xFF, 0xFF, 0x31, 0x00,
  0x00, 0x00, 0x0A, 0x00, 0x00, 0x00, 0x01, 0x00, 0x00, 0x00,
  0x0C, 0x00, 0x14, 0x00, 0x04, 0x00, 0x08, 0x00, 0x0C, 0x00,
  0x10, 0x00, 0x0C, 0x00, 0x00, 0x00, 0x30, 0x00, 0x00, 0x00,
  0x24, 0x00, 0x00, 0x00, 0x18, 0x00, 0x00, 0x00, 0x04, 0x00,
  0x00, 0x00, 0x01, 0x00, 0x00, 0x00, 0x80, 0xFF, 0xFF, 0xFF,
  0xFF, 0xFF, 0xFF, 0xFF, 0x00, 0x00, 0x00, 0x00, 0x01, 0x00,
  0x00, 0x00, 0xE8, 0x7F, 0x80, 0x3B, 0x01, 0x00, 0x00, 0x00,
  0xD1, 0xFE, 0x7F, 0x3F, 0x01, 0x00, 0x00, 0x00, 0x00, 0x00,
  0x00, 0x00, 0x07, 0x00, 0x00, 0x00, 0x69, 0x6E, 0x70, 0x75,
  0x74, 0x5F, 0x31, 0x00, 0x04, 0x00, 0x00, 0x00, 0x01, 0x00,
  0x00, 0x00, 0x31, 0x00, 0x00, 0x00, 0x0A, 0x00, 0x00, 0x00,
  0x01, 0x00, 0x00, 0x00, 0x05, 0x00, 0x00, 0x00, 0x5C, 0x00,
  0x00, 0x00, 0x40, 0x00, 0x00, 0x00, 0x2C, 0x00, 0x00, 0x00,
  0x14, 0x00, 0x00, 0x00, 0x04, 0x00, 0x00, 0x00, 0xC2, 0xFF,
  0xFF, 0xFF, 0x00, 0x00, 0x00, 0x19, 0x02, 0x00, 0x00, 0x00,
  0xE6, 0xFF, 0xFF, 0xFF, 0x00, 0x00, 0x00, 0x09, 0x04, 0x00,
  0x00, 0x00, 0x00, 0x00, 0x06, 0x00, 0x06, 0x00, 0x05, 0x00,
  0x06, 0x00, 0x00, 0x00, 0x00, 0x16, 0x0A, 0x00, 0x0E, 0x00,
  0x07, 0x00, 0x00, 0x00, 0x08, 0x00, 0x0A, 0x00, 0x00, 0x00,
  0x00, 0x00, 0x00, 0x03, 0x03, 0x00, 0x00, 0x00, 0x00, 0x00,
  0x0A, 0x00, 0x0C, 0x00, 0x07, 0x00, 0x00, 0x00, 0x08, 0x00,
  0x0A, 0x00, 0x00, 0x00, 0x00, 0x00, 0x00, 0x04, 0x03, 0x00,
  0x00, 0x00
};
const int g_rbk_model_data_len = 5712;