/* no quant model */
/* two dense layers */
#include "model.h"
const unsigned char micro_no_quant_demo_model[] = {
  0x1c, 0x00, 0x00, 0x00, 0x54, 0x46, 0x4c, 0x33, 0x14, 0x00, 0x20, 0x00,
  0x04, 0x00, 0x08, 0x00, 0x0c, 0x00, 0x10, 0x00, 0x14, 0x00, 0x00, 0x00,
  0x18, 0x00, 0x1c, 0x00, 0x14, 0x00, 0x00, 0x00, 0x03, 0x00, 0x00, 0x00,
  0x18, 0x00, 0x00, 0x00, 0x20, 0x00, 0x00, 0x00, 0xb0, 0x00, 0x00, 0x00,
  0x20, 0x00, 0x00, 0x00, 0x58, 0x00, 0x00, 0x00, 0x50, 0x00, 0x00, 0x00,
  0x02, 0x00, 0x00, 0x00, 0x94, 0x03, 0x00, 0x00, 0x70, 0x01, 0x00, 0x00,
  0x01, 0x00, 0x00, 0x00, 0xb4, 0x00, 0x00, 0x00, 0x0d, 0x00, 0x00, 0x00,
  0x90, 0x16, 0x00, 0x00, 0x8c, 0x16, 0x00, 0x00, 0x50, 0x15, 0x00, 0x00,
  0x78, 0x14, 0x00, 0x00, 0xfc, 0x13, 0x00, 0x00, 0x28, 0x0f, 0x00, 0x00,
  0xd4, 0x05, 0x00, 0x00, 0x00, 0x04, 0x00, 0x00, 0x70, 0x16, 0x00, 0x00,
  0x6c, 0x16, 0x00, 0x00, 0x68, 0x16, 0x00, 0x00, 0x64, 0x16, 0x00, 0x00,
  0x3c, 0x00, 0x00, 0x00, 0x00, 0x00, 0x00, 0x00, 0x01, 0x00, 0x00, 0x00,
  0x0c, 0x00, 0x00, 0x00, 0x08, 0x00, 0x0c, 0x00, 0x04, 0x00, 0x08, 0x00,
  0x08, 0x00, 0x00, 0x00, 0x08, 0x00, 0x00, 0x00, 0x0c, 0x00, 0x00, 0x00,
  0x13, 0x00, 0x00, 0x00, 0x6d, 0x69, 0x6e, 0x5f, 0x72, 0x75, 0x6e, 0x74,
  0x69, 0x6d, 0x65, 0x5f, 0x76, 0x65, 0x72, 0x73, 0x69, 0x6f, 0x6e, 0x00,
  0x1a, 0xeb, 0xff, 0xff, 0x04, 0x00, 0x00, 0x00, 0x10, 0x00, 0x00, 0x00,
  0x31, 0x2e, 0x35, 0x2e, 0x30, 0x00, 0x00, 0x00, 0x00, 0x00, 0x00, 0x00,
  0x00, 0x00, 0x00, 0x00, 0x0f, 0x00, 0x00, 0x00, 0x4d, 0x4c, 0x49, 0x52,
  0x20, 0x43, 0x6f, 0x6e, 0x76, 0x65, 0x72, 0x74, 0x65, 0x64, 0x2e, 0x00,
  0x00, 0x00, 0x0e, 0x00, 0x18, 0x00, 0x04, 0x00, 0x08, 0x00, 0x0c, 0x00,
  0x10, 0x00, 0x14, 0x00, 0x0e, 0x00, 0x00, 0x00, 0x14, 0x00, 0x00, 0x00,
  0x40, 0x00, 0x00, 0x00, 0x44, 0x00, 0x00, 0x00, 0x48, 0x00, 0x00, 0x00,
  0x58, 0x00, 0x00, 0x00, 0x0b, 0x00, 0x00, 0x00, 0x7c, 0x15, 0x00, 0x00,
  0x08, 0x15, 0x00, 0x00, 0x20, 0x14, 0x00, 0x00, 0x54, 0x13, 0x00, 0x00,
  0xf0, 0x12, 0x00, 0x00, 0x1c, 0x0e, 0x00, 0x00, 0xc8, 0x04, 0x00, 0x00,
  0xac, 0x02, 0x00, 0x00, 0xb4, 0x01, 0x00, 0x00, 0xf8, 0x00, 0x00, 0x00,
  0x80, 0x00, 0x00, 0x00, 0x01, 0x00, 0x00, 0x00, 0x00, 0x00, 0x00, 0x00,
  0x01, 0x00, 0x00, 0x00, 0x0a, 0x00, 0x00, 0x00, 0x04, 0x00, 0x00, 0x00,
  0x30, 0x02, 0x00, 0x00, 0x5c, 0x01, 0x00, 0x00, 0xa4, 0x00, 0x00, 0x00,
  0x1c, 0x00, 0x00, 0x00, 0x04, 0x00, 0x00, 0x00, 0x6d, 0x61, 0x69, 0x6e,
  0x00, 0x00, 0x0e, 0x00, 0x18, 0x00, 0x08, 0x00, 0x0c, 0x00, 0x10, 0x00,
  0x07, 0x00, 0x14, 0x00, 0x0e, 0x00, 0x00, 0x00, 0x00, 0x00, 0x00, 0x09,
  0x01, 0x00, 0x00, 0x00, 0x1c, 0x00, 0x00, 0x00, 0x10, 0x00, 0x00, 0x00,
  0x04, 0x00, 0x00, 0x00, 0xf6, 0xeb, 0xff, 0xff, 0x00, 0x00, 0x80, 0x3f,
  0x01, 0x00, 0x00, 0x00, 0x0a, 0x00, 0x00, 0x00, 0x01, 0x00, 0x00, 0x00,
  0x09, 0x00, 0x00, 0x00, 0xec, 0xfd, 0xff, 0xff, 0x19, 0x00, 0x00, 0x00,
  0x00, 0x00, 0x00, 0x19, 0x01, 0x00, 0x00, 0x00, 0x40, 0xeb, 0xff, 0xff,
  0x14, 0x00, 0x00, 0x00, 0x0b, 0x00, 0x00, 0x00, 0x24, 0x00, 0x00, 0x00,
  0x30, 0x00, 0x00, 0x00, 0x10, 0x00, 0x00, 0x00, 0x02, 0x00, 0x00, 0x00,
  0x01, 0x00, 0x00, 0x00, 0x04, 0x00, 0x00, 0x00, 0x02, 0x00, 0x00, 0x00,
  0xff, 0xff, 0xff, 0xff, 0x04, 0x00, 0x00, 0x00, 0x08, 0x00, 0x00, 0x00,
  0x49, 0x64, 0x65, 0x6e, 0x74, 0x69, 0x74, 0x79, 0x00, 0x00, 0x00, 0x00,
  0x24, 0xeb, 0xff, 0xff, 0x5a, 0xff, 0xff, 0xff, 0x00, 0x00, 0x00, 0x08,
  0x18, 0x00, 0x00, 0x00, 0x0c, 0x00, 0x00, 0x00, 0x04, 0x00, 0x00, 0x00,
  0x3c, 0xeb, 0xff, 0xff, 0x01, 0x00, 0x00, 0x00, 0x09, 0x00, 0x00, 0x00,
  0x03, 0x00, 0x00, 0x00, 0x08, 0x00, 0x00, 0x00, 0x06, 0x00, 0x00, 0x00,
  0x03, 0x00, 0x00, 0x00, 0xb4, 0xeb, 0xff, 0xff, 0x14, 0x00, 0x00, 0x00,
  0x0a, 0x00, 0x00, 0x00, 0x24, 0x00, 0x00, 0x00, 0x60, 0x00, 0x00, 0x00,
  0x10, 0x00, 0x00, 0x00, 0x02, 0x00, 0x00, 0x00, 0x01, 0x00, 0x00, 0x00,
  0x04, 0x00, 0x00, 0x00, 0x02, 0x00, 0x00, 0x00, 0xff, 0xff, 0xff, 0xff,
  0x04, 0x00, 0x00, 0x00, 0x38, 0x00, 0x00, 0x00, 0x73, 0x65, 0x71, 0x75,
  0x65, 0x6e, 0x74, 0x69, 0x61, 0x6c, 0x5f, 0x31, 0x2f, 0x64, 0x65, 0x6e,
  0x73, 0x65, 0x5f, 0x35, 0x2f, 0x4d, 0x61, 0x74, 0x4d, 0x75, 0x6c, 0x3b,
  0x73, 0x65, 0x71, 0x75, 0x65, 0x6e, 0x74, 0x69, 0x61, 0x6c, 0x5f, 0x31,
  0x2f, 0x64, 0x65, 0x6e, 0x73, 0x65, 0x5f, 0x35, 0x2f, 0x42, 0x69, 0x61,
  0x73, 0x41, 0x64, 0x64, 0x00, 0x00, 0x00, 0x00, 0x0c, 0xed, 0xff, 0xff,
  0x00, 0x00, 0x0e, 0x00, 0x14, 0x00, 0x00, 0x00, 0x08, 0x00, 0x0c, 0x00,
  0x07, 0x00, 0x10, 0x00, 0x0e, 0x00, 0x00, 0x00, 0x00, 0x00, 0x00, 0x08,
  0x1c, 0x00, 0x00, 0x00, 0x10, 0x00, 0x00, 0x00, 0x04, 0x00, 0x00, 0x00,
  0x2e, 0xff, 0xff, 0xff, 0x00, 0x00, 0x00, 0x01, 0x01, 0x00, 0x00, 0x00,
  0x08, 0x00, 0x00, 0x00, 0x03, 0x00, 0x00, 0x00, 0x07, 0x00, 0x00, 0x00,
  0x05, 0x00, 0x00, 0x00, 0x02, 0x00, 0x00, 0x00, 0x6c, 0xec, 0xff, 0xff,
  0x14, 0x00, 0x00, 0x00, 0x09, 0x00, 0x00, 0x00, 0x24, 0x00, 0x00, 0x00,
  0x78, 0x00, 0x00, 0x00, 0x10, 0x00, 0x00, 0x00, 0x02, 0x00, 0x00, 0x00,
  0x01, 0x00, 0x00, 0x00, 0x18, 0x00, 0x00, 0x00, 0x02, 0x00, 0x00, 0x00,
  0xff, 0xff, 0xff, 0xff, 0x18, 0x00, 0x00, 0x00, 0x52, 0x00, 0x00, 0x00,
  0x73, 0x65, 0x71, 0x75, 0x65, 0x6e, 0x74, 0x69, 0x61, 0x6c, 0x5f, 0x31,
  0x2f, 0x64, 0x65, 0x6e, 0x73, 0x65, 0x5f, 0x34, 0x2f, 0x4d, 0x61, 0x74,
  0x4d, 0x75, 0x6c, 0x3b, 0x73, 0x65, 0x71, 0x75, 0x65, 0x6e, 0x74, 0x69,
  0x61, 0x6c, 0x5f, 0x31, 0x2f, 0x64, 0x65, 0x6e, 0x73, 0x65, 0x5f, 0x34,
  0x2f, 0x42, 0x69, 0x61, 0x73, 0x41, 0x64, 0x64, 0x3b, 0x73, 0x65, 0x71,
  0x75, 0x65, 0x6e, 0x74, 0x69, 0x61, 0x6c, 0x5f, 0x31, 0x2f, 0x64, 0x65,
  0x6e, 0x73, 0x65, 0x5f, 0x34, 0x2f, 0x52, 0x65, 0x6c, 0x75, 0x00, 0x00,
  0xdc, 0xed, 0xff, 0xff, 0x00, 0x00, 0x0e, 0x00, 0x16, 0x00, 0x00, 0x00,
  0x08, 0x00, 0x0c, 0x00, 0x07, 0x00, 0x10, 0x00, 0x0e, 0x00, 0x00, 0x00,
  0x00, 0x00, 0x00, 0x08, 0x24, 0x00, 0x00, 0x00, 0x18, 0x00, 0x00, 0x00,
  0x0c, 0x00, 0x00, 0x00, 0x00, 0x00, 0x06, 0x00, 0x08, 0x00, 0x07, 0x00,
  0x06, 0x00, 0x00, 0x00, 0x00, 0x00, 0x00, 0x01, 0x01, 0x00, 0x00, 0x00,
  0x07, 0x00, 0x00, 0x00, 0x03, 0x00, 0x00, 0x00, 0x00, 0x00, 0x00, 0x00,
  0x04, 0x00, 0x00, 0x00, 0x01, 0x00, 0x00, 0x00, 0x0c, 0x00, 0x10, 0x00,
  0x0b, 0x00, 0x00, 0x00, 0x0c, 0x00, 0x04, 0x00, 0x0c, 0x00, 0x00, 0x00,
  0x09, 0x00, 0x00, 0x00, 0x00, 0x00, 0x00, 0x09, 0x01, 0x00, 0x00, 0x00,
  0x60, 0xed, 0xff, 0xff, 0x14, 0x00, 0x00, 0x00, 0x08, 0x00, 0x00, 0x00,
  0x24, 0x00, 0x00, 0x00, 0x78, 0x00, 0x00, 0x00, 0x10, 0x00, 0x00, 0x00,
  0x02, 0x00, 0x00, 0x00, 0x01, 0x00, 0x00, 0x00, 0x18, 0x00, 0x00, 0x00,
  0x02, 0x00, 0x00, 0x00, 0xff, 0xff, 0xff, 0xff, 0x18, 0x00, 0x00, 0x00,
  0x52, 0x00, 0x00, 0x00, 0x73, 0x65, 0x71, 0x75, 0x65, 0x6e, 0x74, 0x69,
  0x61, 0x6c, 0x5f, 0x31, 0x2f, 0x64, 0x65, 0x6e, 0x73, 0x65, 0x5f, 0x33,
  0x2f, 0x4d, 0x61, 0x74, 0x4d, 0x75, 0x6c, 0x3b, 0x73, 0x65, 0x71, 0x75,
  0x65, 0x6e, 0x74, 0x69, 0x61, 0x6c, 0x5f, 0x31, 0x2f, 0x64, 0x65, 0x6e,
  0x73, 0x65, 0x5f, 0x33, 0x2f, 0x42, 0x69, 0x61, 0x73, 0x41, 0x64, 0x64,
  0x3b, 0x73, 0x65, 0x71, 0x75, 0x65, 0x6e, 0x74, 0x69, 0x61, 0x6c, 0x5f,
  0x31, 0x2f, 0x64, 0x65, 0x6e, 0x73, 0x65, 0x5f, 0x33, 0x2f, 0x52, 0x65,
  0x6c, 0x75, 0x00, 0x00, 0x8c, 0xed, 0xff, 0xff, 0xca, 0xee, 0xff, 0xff,
  0x04, 0x00, 0x00, 0x00, 0x80, 0x01, 0x00, 0x00, 0x48, 0x74, 0x0a, 0xbf,
  0x83, 0x83, 0x7b, 0xbd, 0x00, 0xc2, 0xca, 0xbe, 0x00, 0x09, 0xa9, 0xbe,
  0x3f, 0xc6, 0x9c, 0x3e, 0xe1, 0xf3, 0x05, 0x3f, 0x1d, 0x63, 0x13, 0x3c,
  0x6f, 0x4b, 0x28, 0x3e, 0x1b, 0xce, 0xfa, 0x3e, 0x0b, 0x9e, 0xc1, 0xbe,
  0xf3, 0x9e, 0xeb, 0x3e, 0x37, 0x7c, 0xce, 0x3e, 0x8f, 0x54, 0x04, 0x3f,
  0x3e, 0x06, 0x29, 0xbf, 0x5b, 0xfb, 0xb4, 0xbe, 0xe4, 0xe8, 0x05, 0xbf,
  0xe3, 0xcb, 0x06, 0x3e, 0xb7, 0x58, 0x84, 0x3e, 0x0c, 0x60, 0x98, 0x3e,
  0xad, 0x9a, 0x00, 0x3f, 0x09, 0xde, 0x1b, 0xbf, 0xa5, 0x6e, 0xb8, 0x3e,
  0x35, 0x86, 0x93, 0xbe, 0x95, 0x80, 0x37, 0x3e, 0x22, 0x7f, 0xa6, 0x3d,
  0x3c, 0xb0, 0xc0, 0xbe, 0xde, 0xcb, 0x22, 0xbe, 0x82, 0x5f, 0x9f, 0xbd,
  0xfd, 0xbe, 0x0b, 0xbf, 0x9d, 0xfd, 0x88, 0x3e, 0x09, 0x00, 0xb1, 0x3e,
  0x5c, 0xb1, 0x87, 0xbe, 0xae, 0x4a, 0xcc, 0xbe, 0x03, 0x3c, 0xa2, 0xbe,
  0x95, 0xcb, 0xa6, 0xbe, 0xf1, 0x90, 0x21, 0x3f, 0xc8, 0x18, 0x43, 0xbe,
  0xb4, 0x9e, 0xfa, 0x3e, 0xaa, 0xd9, 0x72, 0x3e, 0x30, 0x46, 0x0d, 0xbe,
  0xac, 0x33, 0xa2, 0xbe, 0x07, 0x41, 0xd0, 0xbe, 0xe0, 0xbc, 0xbe, 0xbe,
  0x88, 0xc3, 0x1b, 0x3f, 0xc0, 0xc8, 0x1d, 0xbf, 0x56, 0xe7, 0x64, 0x3e,
  0x79, 0x6d, 0xb2, 0x3c, 0x04, 0x72, 0x07, 0x3e, 0xaf, 0xe6, 0xa4, 0xbd,
  0x10, 0xeb, 0x96, 0x3e, 0x02, 0x22, 0xae, 0x3e, 0xe0, 0xc3, 0xc1, 0xbd,
  0x18, 0x2e, 0xa3, 0x3e, 0xed, 0x6f, 0x1d, 0xbe, 0xe3, 0x0e, 0x45, 0xbe,
  0x07, 0x8f, 0xd4, 0xbb, 0x2d, 0xe7, 0x82, 0xbe, 0xcc, 0x5b, 0xaa, 0xbe,
  0x66, 0xc1, 0xfe, 0xbd, 0x0f, 0xd5, 0xdc, 0xbd, 0xa3, 0x43, 0xa6, 0xbe,
  0x4f, 0xbc, 0xc1, 0x3e, 0xe1, 0x1b, 0xad, 0xbe, 0xe3, 0xc0, 0x10, 0xbe,
  0xef, 0x39, 0x9b, 0x3e, 0x30, 0x2c, 0x01, 0x3f, 0x83, 0x95, 0xac, 0xbe,
  0x89, 0x55, 0x01, 0x3e, 0x13, 0x3c, 0x46, 0x3e, 0x44, 0x8a, 0x44, 0xbe,
  0x96, 0x44, 0x34, 0x3e, 0x13, 0x5c, 0xcb, 0x3e, 0x12, 0x31, 0xa2, 0xbe,
  0x9f, 0xb4, 0x05, 0xbf, 0xc9, 0x8b, 0xe9, 0xbe, 0x2c, 0xec, 0x23, 0xbd,
  0x3a, 0x2f, 0x58, 0xbe, 0x01, 0xa9, 0xdb, 0xbe, 0x7a, 0xf0, 0x61, 0xbd,
  0x5a, 0xbf, 0x04, 0x3f, 0xa6, 0x29, 0x0e, 0x3e, 0x2e, 0xae, 0xf7, 0x3e,
  0x08, 0xbc, 0x82, 0x3e, 0x1a, 0x6f, 0xc8, 0xbd, 0x8e, 0xd2, 0x8b, 0x3d,
  0x75, 0x26, 0x04, 0xbf, 0x54, 0x44, 0xc4, 0x3e, 0xbd, 0x6f, 0x11, 0xbf,
  0xd9, 0xbd, 0x09, 0x3e, 0xd1, 0x7c, 0x91, 0x3e, 0x85, 0x43, 0x27, 0xbe,
  0x5c, 0x36, 0x7e, 0x3e, 0x98, 0x3b, 0xb3, 0x3e, 0x6a, 0xb4, 0x21, 0xbd,
  0x31, 0x1e, 0xb2, 0xbe, 0x4f, 0x0a, 0xa1, 0xbe, 0xe2, 0xef, 0xff, 0xff,
  0x10, 0x00, 0x00, 0x00, 0x07, 0x00, 0x00, 0x00, 0x14, 0x00, 0x00, 0x00,
  0x30, 0x00, 0x00, 0x00, 0x02, 0x00, 0x00, 0x00, 0x04, 0x00, 0x00, 0x00,
  0x18, 0x00, 0x00, 0x00, 0x1b, 0x00, 0x00, 0x00, 0x73, 0x65, 0x71, 0x75,
  0x65, 0x6e, 0x74, 0x69, 0x61, 0x6c, 0x5f, 0x31, 0x2f, 0x64, 0x65, 0x6e,
  0x73, 0x65, 0x5f, 0x35, 0x2f, 0x4d, 0x61, 0x74, 0x4d, 0x75, 0x6c, 0x00,
  0x5c, 0xef, 0xff, 0xff, 0x9a, 0xf0, 0xff, 0xff, 0x04, 0x00, 0x00, 0x00,
  0x00, 0x09, 0x00, 0x00, 0x6f, 0x0f, 0x9e, 0x3e, 0xa2, 0xb0, 0x3b, 0x3e,
  0x53, 0x79, 0x82, 0x3e, 0x1e, 0x52, 0xd5, 0x3d, 0x34, 0x5f, 0x0d, 0xbe,
  0x22, 0xec, 0x0a, 0x3f, 0x03, 0xfe, 0x50, 0x3e, 0xbb, 0x45, 0xd7, 0x3e,
  0x9e, 0x2b, 0x9b, 0x3d, 0xa0, 0xd0, 0x86, 0xbe, 0xb6, 0xdf, 0x27, 0xbe,
  0x31, 0xe2, 0x44, 0x3e, 0x95, 0x58, 0x15, 0xbe, 0x61, 0xf3, 0x64, 0x3e,
  0x73, 0x1b, 0xee, 0xbd, 0x50, 0xe3, 0x37, 0xbe, 0x14, 0x52, 0xa9, 0x3e,
  0x91, 0x84, 0x44, 0xbe, 0xc0, 0x71, 0x8d, 0xbe, 0xd7, 0x0e, 0x9e, 0x3e,
  0x9c, 0xcc, 0xaf, 0xbe, 0x6e, 0x1e, 0xb4, 0x3e, 0x7a, 0x2a, 0x25, 0x3e,
  0x96, 0xaf, 0xa5, 0x3e, 0x02, 0x04, 0x67, 0xbd, 0xdf, 0xac, 0x5e, 0xbd,
  0x00, 0x4e, 0x8b, 0x3c, 0x52, 0xba, 0xa7, 0x3b, 0xfb, 0x8e, 0x82, 0x3d,
  0x2a, 0xb5, 0x81, 0x3e, 0x44, 0xdd, 0x57, 0x3e, 0x94, 0xe7, 0xcf, 0xbd,
  0x61, 0x1d, 0x89, 0xbe, 0x3d, 0x5e, 0xc1, 0x3d, 0xd5, 0x12, 0x14, 0x3e,
  0x9b, 0x55, 0x22, 0xbe, 0xfc, 0x2d, 0xd0, 0x3e, 0xd0, 0xc8, 0x48, 0xbe,
  0x5c, 0x41, 0xae, 0xbe, 0x72, 0x4b, 0x9d, 0x3e, 0x18, 0x1c, 0x0f, 0xbe,
  0xf9, 0xff, 0x5b, 0xbe, 0x58, 0x9d, 0xa2, 0x3e, 0xeb, 0x98, 0x2f, 0x3e,
  0xab, 0x9a, 0x98, 0xbe, 0x5d, 0xeb, 0x7b, 0x3e, 0xeb, 0xc9, 0xaf, 0xbe,
  0xb5, 0x98, 0xb4, 0x3e, 0xaa, 0xc0, 0x63, 0xbe, 0x5c, 0x29, 0xc2, 0xbd,
  0x0a, 0x2f, 0xfb, 0x3d, 0x04, 0x31, 0x8b, 0xbd, 0xcc, 0x01, 0xa1, 0xbe,
  0xf7, 0x10, 0xfe, 0x3d, 0x50, 0x09, 0x13, 0x3d, 0x7e, 0xa2, 0x02, 0xbe,
  0xa4, 0x60, 0xf6, 0xbd, 0x06, 0x06, 0xe6, 0x3d, 0x20, 0x9b, 0x99, 0xbe,
  0xb0, 0xd1, 0xa8, 0xbc, 0xa9, 0xe0, 0x77, 0x3d, 0x68, 0xc4, 0x47, 0x3e,
  0x80, 0xdf, 0xa2, 0xbe, 0xbd, 0x5a, 0x84, 0xbe, 0xe5, 0xc0, 0x99, 0x3e,
  0xd3, 0x4f, 0xb6, 0xbe, 0x65, 0x84, 0x33, 0x3e, 0x68, 0x42, 0x7c, 0xbe,
  0x30, 0x37, 0x32, 0xbe, 0x5f, 0x67, 0x97, 0xbe, 0x04, 0xc8, 0xb9, 0xbe,
  0x27, 0x5d, 0x95, 0x3e, 0xce, 0xa5, 0x55, 0x3e, 0x51, 0x95, 0x16, 0x3d,
  0x24, 0x8e, 0x9d, 0xbd, 0xc4, 0x84, 0xd6, 0x3e, 0xf3, 0x46, 0x75, 0x3d,
  0x52, 0x69, 0x35, 0xbe, 0xea, 0xf1, 0x6f, 0x3d, 0xea, 0x0a, 0x97, 0x3e,
  0x1d, 0x24, 0xc3, 0x3e, 0xb3, 0x15, 0x27, 0xbe, 0x83, 0x94, 0xb3, 0x3e,
  0x8d, 0x23, 0x42, 0xbe, 0x90, 0x19, 0xdc, 0x3c, 0x2b, 0x4d, 0x83, 0x3e,
  0x58, 0xd8, 0x83, 0xbe, 0x19, 0x4e, 0x23, 0xbe, 0x9a, 0x94, 0x23, 0xbe,
  0xbe, 0x17, 0x48, 0x3e, 0x4f, 0xe9, 0xb2, 0xbd, 0xb3, 0xf9, 0x3d, 0x3d,
  0x21, 0xe2, 0xff, 0xbd, 0xa8, 0x86, 0xba, 0xbd, 0x54, 0x3e, 0xa5, 0x3e,
  0xcd, 0x47, 0x23, 0xbe, 0x0b, 0x09, 0xae, 0x3e, 0x98, 0x24, 0x90, 0x3e,
  0x06, 0x5b, 0x6c, 0xbd, 0xe4, 0x6d, 0xef, 0x3e, 0x41, 0x6c, 0x13, 0x3e,
  0x0a, 0xd8, 0xef, 0xbd, 0x1c, 0xed, 0x70, 0x3e, 0x64, 0xb6, 0x2c, 0xbe,
  0xb5, 0xdc, 0x83, 0x3c, 0x74, 0x59, 0xa3, 0x3e, 0x60, 0xff, 0x0f, 0xbd,
  0x9c, 0x86, 0x6a, 0xbe, 0xae, 0x01, 0xe0, 0x3e, 0x45, 0xfc, 0x29, 0x3e,
  0xfc, 0x28, 0x0b, 0x3d, 0x2f, 0x92, 0x52, 0xbe, 0xd2, 0x14, 0x6d, 0x3e,
  0xc9, 0x16, 0x22, 0x3e, 0x47, 0xd6, 0xd1, 0x3e, 0xa9, 0x2b, 0x42, 0x3d,
  0x7a, 0x26, 0x18, 0xbe, 0xb7, 0x94, 0x09, 0x3d, 0x12, 0xe8, 0xa0, 0x3c,
  0x30, 0xdd, 0x6b, 0xbe, 0x13, 0x49, 0x16, 0x3e, 0x19, 0xf0, 0xd6, 0xbe,
  0xec, 0x1e, 0x19, 0x3e, 0xf2, 0x5b, 0xe2, 0xbe, 0x9b, 0xda, 0xcc, 0xbe,
  0xce, 0x7d, 0xc5, 0x3e, 0xa1, 0x0d, 0x16, 0xbe, 0x1f, 0xd2, 0x2d, 0x3d,
  0x5b, 0x9c, 0x40, 0x3d, 0x59, 0x2d, 0x32, 0xbe, 0x66, 0xc5, 0x82, 0xbd,
  0x46, 0x69, 0x2d, 0xbe, 0x7c, 0x1a, 0xbb, 0x3e, 0x4d, 0x69, 0x9f, 0x3e,
  0xc6, 0x5d, 0xc3, 0xbd, 0x14, 0x08, 0x12, 0x3d, 0xed, 0xea, 0x2a, 0x3e,
  0x77, 0xa9, 0x47, 0xbe, 0x72, 0xde, 0xd9, 0xbd, 0x1d, 0xe6, 0x69, 0xbe,
  0x05, 0x7a, 0x0a, 0x3e, 0x13, 0xe5, 0xc6, 0x3e, 0x55, 0x5f, 0x72, 0x3e,
  0xc5, 0x7e, 0xe8, 0xbd, 0xd6, 0xb9, 0x8e, 0x3e, 0xcd, 0x3a, 0x09, 0xbe,
  0xfc, 0x4f, 0xb3, 0x3e, 0x9e, 0x65, 0xb5, 0xbe, 0x25, 0x91, 0x27, 0x3e,
  0xfe, 0x33, 0xa6, 0x3e, 0x6e, 0x63, 0x31, 0x3e, 0xb9, 0x73, 0xcb, 0x3e,
  0x5e, 0x31, 0xa7, 0xbe, 0x6b, 0x2a, 0x88, 0xbe, 0x54, 0xbd, 0x7c, 0xbe,
  0x7a, 0x9f, 0x02, 0x3f, 0x92, 0x99, 0x81, 0x3d, 0x9b, 0x0f, 0xde, 0xbd,
  0xd4, 0x1e, 0x2b, 0x3e, 0x34, 0x61, 0x22, 0x3e, 0xe5, 0x96, 0xe6, 0xbd,
  0xb7, 0x9d, 0x56, 0xbe, 0x6f, 0x11, 0xd9, 0xba, 0xb6, 0x77, 0x47, 0x3e,
  0x1b, 0x7b, 0x91, 0x3e, 0x30, 0xee, 0xcf, 0x3e, 0x51, 0xad, 0x4f, 0x3e,
  0x1a, 0x30, 0xca, 0xbe, 0x46, 0x66, 0x87, 0xbe, 0xdd, 0xb8, 0x37, 0xbd,
  0xb9, 0xec, 0x9c, 0x3e, 0x7b, 0xce, 0x64, 0x3e, 0xf2, 0x83, 0x2c, 0x3e,
  0x6e, 0x4c, 0x06, 0x3e, 0xa8, 0xa6, 0x87, 0xbd, 0xbb, 0x0a, 0xac, 0xbd,
  0xdb, 0x6b, 0xb7, 0xbc, 0x46, 0xc2, 0x20, 0x3e, 0x73, 0x8f, 0xa7, 0x3e,
  0xf4, 0x2e, 0xc7, 0x3e, 0x51, 0x1d, 0xc6, 0xbe, 0x44, 0xad, 0xf8, 0xbd,
  0x74, 0xcc, 0x3b, 0x3e, 0x4a, 0x55, 0x90, 0xbe, 0x10, 0x03, 0xc9, 0xbe,
  0x65, 0x82, 0xa9, 0x3d, 0x94, 0xea, 0xb4, 0xbc, 0xca, 0x0a, 0x3a, 0x3e,
  0x54, 0x58, 0x4f, 0x3e, 0xfa, 0xd8, 0x2b, 0xbe, 0x91, 0x51, 0x19, 0x3d,
  0x0d, 0x7b, 0x30, 0x3e, 0x5d, 0x23, 0xb5, 0x3e, 0x68, 0x97, 0x58, 0xbd,
  0x4c, 0xc6, 0x58, 0xbe, 0xe4, 0xc5, 0x95, 0xbe, 0xfd, 0x02, 0xb9, 0xbe,
  0x61, 0x3a, 0x6c, 0x3e, 0xed, 0xb8, 0xc9, 0x3a, 0x1e, 0x64, 0x6e, 0xbe,
  0x78, 0x6a, 0x1f, 0xbe, 0x33, 0xab, 0x74, 0xbe, 0x52, 0x9c, 0x37, 0x3e,
  0x96, 0x16, 0x6f, 0xbd, 0x6d, 0x05, 0x16, 0xbe, 0x29, 0xd8, 0xc2, 0x3b,
  0x01, 0x15, 0x9b, 0x3e, 0x88, 0x26, 0xcb, 0x3d, 0x23, 0xa9, 0x21, 0x3e,
  0x0d, 0xfb, 0xc4, 0x3d, 0x52, 0x6e, 0xf8, 0x3d, 0x4d, 0x91, 0x0d, 0xbe,
  0x41, 0xf1, 0xdd, 0x3e, 0x44, 0xdb, 0x72, 0xbe, 0x92, 0xf9, 0x9c, 0xbe,
  0x42, 0x98, 0xd3, 0x3c, 0xdc, 0x70, 0x88, 0xbd, 0xf2, 0x25, 0x8e, 0xbe,
  0x24, 0xb7, 0x40, 0x3e, 0xa2, 0x2e, 0xb8, 0x3e, 0x62, 0xf8, 0x49, 0xbe,
  0x3b, 0xe7, 0x63, 0x3d, 0x5c, 0x1f, 0xd7, 0x3e, 0xdc, 0xf9, 0xf4, 0xbd,
  0x86, 0x7f, 0x51, 0x3e, 0x6f, 0xcc, 0xf1, 0x3d, 0x57, 0x29, 0x7e, 0xbe,
  0x79, 0x10, 0x72, 0x3b, 0x6c, 0x17, 0x85, 0xbe, 0x8f, 0x19, 0x7c, 0x3e,
  0xf2, 0x2a, 0xb9, 0x3e, 0xf0, 0x42, 0x5a, 0xbe, 0xd7, 0xd9, 0xda, 0x3c,
  0xa7, 0xf1, 0x90, 0x3e, 0x30, 0xe3, 0x9d, 0xbd, 0x42, 0xd2, 0x5f, 0xbe,
  0x08, 0x7e, 0x8d, 0xbe, 0x7f, 0x34, 0x0c, 0x3e, 0xa5, 0x7a, 0x5b, 0xbe,
  0x82, 0x16, 0x91, 0xbe, 0xc6, 0xbb, 0x8b, 0x3e, 0xe2, 0x22, 0x66, 0xbe,
  0x5d, 0x6f, 0x00, 0xbe, 0x6e, 0x44, 0xe4, 0xbe, 0xc5, 0xaf, 0xb1, 0x3e,
  0x9c, 0xc5, 0x43, 0x3e, 0x94, 0x0e, 0x67, 0x3d, 0xa9, 0xa4, 0xef, 0xbe,
  0xed, 0x9d, 0x2a, 0x3e, 0x47, 0xa6, 0x9e, 0xbd, 0xd0, 0x2a, 0x4c, 0x3e,
  0xfd, 0xd0, 0x75, 0x3e, 0x6b, 0x7a, 0xb8, 0x3d, 0xd8, 0xbd, 0x8a, 0xbe,
  0x9a, 0x57, 0xdf, 0x3c, 0x2e, 0xd0, 0x49, 0x3e, 0x0b, 0x34, 0xcc, 0x3d,
  0x58, 0x01, 0x69, 0xbc, 0x0c, 0x2e, 0x3b, 0xbe, 0x5a, 0xf6, 0x98, 0xbd,
  0xca, 0xdd, 0x8c, 0x3c, 0x24, 0xd6, 0x1c, 0xbd, 0xbe, 0xd2, 0x7d, 0x3d,
  0xe6, 0xfe, 0x88, 0x3e, 0x4d, 0x8d, 0x2d, 0xbe, 0xf9, 0x02, 0xb2, 0xbe,
  0xed, 0x9c, 0xa6, 0x3e, 0x42, 0x8a, 0x83, 0xbe, 0xd6, 0x1c, 0x99, 0x3e,
  0x6a, 0x80, 0xd6, 0x3e, 0xb8, 0x03, 0xe2, 0xbc, 0xe0, 0x47, 0x88, 0x3d,
  0x91, 0x93, 0x01, 0xbf, 0x41, 0x19, 0x86, 0xbe, 0x71, 0xab, 0xb5, 0xbe,
  0x66, 0x94, 0xbf, 0xbc, 0x39, 0x5d, 0x5c, 0x3e, 0x3d, 0xa2, 0x54, 0x3e,
  0x4b, 0xf3, 0xbb, 0xbe, 0xe7, 0xcf, 0x4b, 0x3e, 0xf2, 0x95, 0x07, 0x3f,
  0x11, 0x50, 0x18, 0x3e, 0x8b, 0xa5, 0x4c, 0x3e, 0x9f, 0x50, 0x4f, 0x3d,
  0xc2, 0x96, 0x01, 0x3f, 0x48, 0x50, 0x10, 0xbe, 0x4c, 0xe6, 0x58, 0x3e,
  0x21, 0x44, 0x99, 0x3c, 0x87, 0x22, 0x3e, 0x3d, 0xf1, 0x51, 0x98, 0xbe,
  0x2d, 0xf9, 0x2e, 0x3d, 0x20, 0x0f, 0xc3, 0xbe, 0x42, 0x91, 0x24, 0x3e,
  0x68, 0xba, 0xc5, 0xbb, 0x79, 0xe0, 0xc8, 0x3e, 0x9b, 0x56, 0x22, 0xbe,
  0x78, 0x0e, 0x80, 0x3e, 0x67, 0x07, 0xe6, 0x3d, 0x4f, 0xea, 0x25, 0xbe,
  0x3e, 0x27, 0x4e, 0x3d, 0xa4, 0x06, 0x84, 0x3e, 0x55, 0xf0, 0xb5, 0xbd,
  0xeb, 0x34, 0x31, 0x3e, 0xcd, 0x5e, 0x66, 0x3e, 0xe0, 0xfc, 0xbd, 0xbd,
  0x92, 0x78, 0xd2, 0xbc, 0xc0, 0x2c, 0xd5, 0x3e, 0x81, 0x86, 0x08, 0xbe,
  0x49, 0x54, 0xdd, 0x3d, 0xbb, 0x40, 0x07, 0x3d, 0xff, 0x26, 0xb9, 0xbe,
  0x3b, 0x17, 0xaa, 0xbe, 0x6a, 0x79, 0x8a, 0xbe, 0xcb, 0xb1, 0xee, 0x3e,
  0x93, 0x49, 0xe1, 0x3e, 0x01, 0x9c, 0xf8, 0x3e, 0xec, 0x6d, 0x8e, 0xbe,
  0x1f, 0x28, 0x13, 0x3d, 0x61, 0xcd, 0xe5, 0xbd, 0xe1, 0x90, 0xa8, 0x3e,
  0x12, 0xbc, 0xc4, 0xbe, 0x6f, 0xfb, 0x36, 0x3e, 0xf3, 0x7b, 0xa8, 0x3d,
  0x3e, 0x8e, 0xcb, 0x3e, 0x9b, 0x1d, 0xbd, 0x3d, 0xe5, 0xe0, 0x42, 0xbe,
  0xf4, 0x12, 0xad, 0xbe, 0x58, 0xd9, 0x66, 0xbe, 0x79, 0x61, 0x5d, 0x3d,
  0x4f, 0x13, 0x1f, 0xbe, 0xe8, 0x96, 0xcb, 0x3e, 0xb1, 0x95, 0x69, 0x3e,
  0x44, 0x92, 0x59, 0x3d, 0x08, 0x20, 0xcd, 0x3e, 0x27, 0xfc, 0x49, 0x3e,
  0x85, 0xc5, 0x13, 0xbe, 0x97, 0x79, 0xc6, 0xbe, 0xdb, 0xe1, 0x0c, 0x3e,
  0x50, 0x20, 0xb3, 0x3e, 0xd1, 0x77, 0x42, 0x3e, 0xcd, 0xcb, 0x5a, 0x3e,
  0x20, 0x81, 0xf7, 0x3e, 0x08, 0x1c, 0x64, 0x3e, 0x24, 0x0b, 0xca, 0x3e,
  0xd8, 0x86, 0xab, 0x3d, 0x6b, 0xc9, 0x20, 0xbd, 0x37, 0xfe, 0x4d, 0x3e,
  0x6c, 0x47, 0x51, 0x3e, 0x8c, 0x65, 0x04, 0xbc, 0xb9, 0x8a, 0xb2, 0x3e,
  0xbf, 0x80, 0xb6, 0x3d, 0x35, 0x78, 0xcc, 0x3e, 0xbb, 0x49, 0x5a, 0x3d,
  0xc7, 0x42, 0xac, 0x3e, 0x2b, 0xc6, 0xb6, 0xbe, 0x38, 0x6a, 0x0b, 0x3e,
  0xc1, 0x8c, 0xee, 0x3e, 0x12, 0x1d, 0x97, 0x3e, 0xce, 0xea, 0xbf, 0x3e,
  0x40, 0x29, 0x9f, 0xbe, 0xf3, 0x3f, 0x59, 0x3e, 0xb9, 0xf2, 0x47, 0x3e,
  0x18, 0x4d, 0x44, 0xbd, 0x76, 0xbb, 0xba, 0x3e, 0x89, 0xca, 0xbd, 0xbe,
  0x03, 0xb8, 0x87, 0xbe, 0x28, 0x89, 0x76, 0xbd, 0x42, 0x92, 0x84, 0x3e,
  0x34, 0x4a, 0xa8, 0x3d, 0xe5, 0x33, 0x9c, 0xbe, 0x88, 0xf6, 0x94, 0x3d,
  0x68, 0xbd, 0x6f, 0xbd, 0x14, 0xab, 0x1f, 0x3e, 0x80, 0xfc, 0xb0, 0xbb,
  0x62, 0x63, 0x99, 0xbe, 0xd6, 0x92, 0xdd, 0xbd, 0x8e, 0xbc, 0x23, 0xbe,
  0x72, 0xc5, 0x15, 0xbc, 0x23, 0xc0, 0x67, 0xbe, 0x57, 0x1f, 0x81, 0xbd,
  0xf0, 0x5e, 0xa6, 0xbe, 0x3e, 0x22, 0xfe, 0xbc, 0xf2, 0x55, 0x84, 0xbe,
  0x00, 0x2c, 0xd2, 0x3e, 0xc7, 0xe7, 0x9c, 0x3e, 0x6b, 0x87, 0x68, 0x3e,
  0x2b, 0x19, 0xa0, 0xbe, 0x91, 0xc8, 0x4a, 0x3e, 0x4a, 0x2f, 0x89, 0x3e,
  0x69, 0x09, 0x0c, 0x3e, 0x17, 0x49, 0xbe, 0x3d, 0x88, 0x8b, 0x76, 0x3e,
  0x40, 0x4b, 0x89, 0xbd, 0xaf, 0xc6, 0x4b, 0xbe, 0x6d, 0x80, 0xf1, 0xba,
  0xb7, 0x00, 0xf4, 0xbc, 0xa1, 0xb4, 0xad, 0x3e, 0x90, 0x18, 0xa1, 0x3e,
  0x9f, 0xb1, 0xd4, 0x3d, 0x36, 0x28, 0xdd, 0xbe, 0x58, 0xed, 0xdd, 0xbd,
  0x5c, 0x7a, 0x8e, 0xbd, 0xf1, 0xb4, 0x8d, 0x3e, 0x1f, 0x19, 0x99, 0xbc,
  0x23, 0x5c, 0x33, 0xbd, 0x73, 0x0f, 0xf7, 0x3d, 0xaa, 0x85, 0x6a, 0xbe,
  0x47, 0xa2, 0x43, 0x3d, 0xd4, 0x0c, 0xd9, 0x3e, 0x9f, 0x82, 0x68, 0x3d,
  0x30, 0xab, 0x16, 0xbc, 0x38, 0x37, 0xe8, 0x3e, 0x16, 0x46, 0xba, 0x3e,
  0x83, 0x84, 0x8c, 0x3d, 0x59, 0x91, 0xcb, 0x3e, 0x6c, 0x83, 0x61, 0xbe,
  0x9e, 0x5e, 0x67, 0xbe, 0x15, 0xe1, 0xaa, 0x3d, 0x0b, 0x3d, 0x58, 0x3c,
  0x76, 0x20, 0xcb, 0x3d, 0x91, 0x81, 0xd8, 0x3e, 0xad, 0x82, 0x8a, 0xbd,
  0x00, 0xeb, 0x54, 0xbd, 0xc2, 0x85, 0x94, 0xbe, 0xac, 0x9c, 0xb8, 0xbe,
  0x5d, 0x05, 0x87, 0xbe, 0xb3, 0xf1, 0x6e, 0x3e, 0x6a, 0x43, 0x5d, 0x3e,
  0x8c, 0x63, 0x3c, 0xbe, 0x0c, 0x08, 0xbe, 0x3e, 0x65, 0x6e, 0xc1, 0xbd,
  0xf4, 0x5a, 0x39, 0xbe, 0x30, 0xe0, 0x86, 0x3e, 0x8f, 0xa1, 0xa4, 0xbe,
  0x13, 0x4d, 0x6c, 0x3e, 0x70, 0xe8, 0x9e, 0x3d, 0x50, 0xf6, 0x58, 0xbd,
  0x87, 0x59, 0x88, 0xbe, 0x20, 0xe4, 0xaf, 0x3c, 0x7f, 0xf4, 0xe3, 0x3d,
  0x2c, 0xd7, 0xa8, 0x3e, 0x15, 0x68, 0x9f, 0x3c, 0x66, 0xa2, 0x29, 0xbe,
  0x82, 0x9d, 0x46, 0xbe, 0x14, 0x06, 0x8d, 0x3e, 0x56, 0x9c, 0xcf, 0xbe,
  0xe3, 0xb8, 0x73, 0x3e, 0x03, 0x07, 0xb9, 0x3e, 0xa8, 0x2e, 0xaf, 0x3d,
  0xc7, 0xcd, 0x3d, 0xbe, 0xd4, 0x2a, 0x32, 0xbe, 0xbc, 0x55, 0x38, 0x3b,
  0xcd, 0x98, 0x87, 0xbd, 0x89, 0xad, 0xac, 0x3c, 0x95, 0x15, 0x44, 0xbe,
  0x3f, 0x6b, 0x60, 0xbe, 0x85, 0x03, 0x53, 0xbd, 0x71, 0x57, 0x2f, 0x3e,
  0x28, 0x99, 0xa7, 0x3e, 0xaf, 0x6e, 0xa6, 0xbe, 0x49, 0x44, 0xa3, 0xbe,
  0xe5, 0xd0, 0xb4, 0x3e, 0x40, 0xc3, 0xac, 0x3c, 0xd5, 0xe7, 0x10, 0x3b,
  0xe4, 0xec, 0x93, 0x3e, 0x62, 0xd2, 0x72, 0xbe, 0x81, 0x32, 0x03, 0xbe,
  0xd0, 0xed, 0x60, 0xbd, 0xc6, 0x22, 0xfc, 0x3d, 0xe9, 0x77, 0x1b, 0xbd,
  0xc0, 0x58, 0x56, 0x3d, 0x79, 0x58, 0xda, 0x3d, 0x89, 0x9a, 0x13, 0x3f,
  0xce, 0x7d, 0x77, 0x3d, 0xaa, 0x42, 0x76, 0x3d, 0x97, 0x35, 0xa7, 0x3e,
  0x29, 0xbb, 0xe9, 0x3e, 0xdc, 0xf3, 0xc0, 0x3e, 0x3e, 0xf5, 0xc3, 0x3e,
  0xe4, 0x06, 0x95, 0xbe, 0xcc, 0x7b, 0x64, 0xbd, 0x11, 0x73, 0x1e, 0x3d,
  0x0c, 0xd3, 0xb7, 0xbd, 0xb7, 0xbe, 0x8f, 0x3e, 0x40, 0xec, 0x9c, 0x3e,
  0x45, 0xb2, 0x54, 0x3e, 0xac, 0xc8, 0xd0, 0x3e, 0xf6, 0xc7, 0x52, 0xbe,
  0xee, 0x4d, 0xa9, 0x3e, 0xce, 0xa3, 0x39, 0x3e, 0x6b, 0xd8, 0x0c, 0xbd,
  0x34, 0xb7, 0x53, 0x3e, 0x97, 0xd5, 0x4a, 0xbd, 0x2a, 0x63, 0x76, 0x3d,
  0xd8, 0x9f, 0x89, 0xbe, 0xff, 0xd5, 0xfe, 0x3d, 0xb8, 0xee, 0xa5, 0xbe,
  0x98, 0x71, 0x28, 0xbd, 0x82, 0xce, 0xa4, 0x3d, 0x15, 0x50, 0xff, 0x3e,
  0x33, 0x06, 0xde, 0xbd, 0xdb, 0x37, 0x07, 0x3e, 0x3a, 0xe8, 0xfc, 0xbd,
  0x5a, 0xef, 0x02, 0x3f, 0xb9, 0x0b, 0x3d, 0xbc, 0xba, 0xf6, 0xf5, 0xbe,
  0x76, 0x56, 0xa7, 0xbe, 0xa3, 0x11, 0xdf, 0xbd, 0x19, 0xc8, 0x8b, 0x3e,
  0xaa, 0x5c, 0x51, 0x3e, 0x40, 0xed, 0x89, 0x3d, 0x9d, 0x07, 0x91, 0xbe,
  0x14, 0xb5, 0x24, 0x3e, 0x90, 0x69, 0xa5, 0xbd, 0xdf, 0xa6, 0x02, 0x3c,
  0x36, 0xb4, 0x34, 0x3e, 0x39, 0xb4, 0x37, 0x3e, 0x3c, 0xd3, 0x26, 0xbe,
  0x16, 0xaf, 0xa3, 0xbe, 0xea, 0x3e, 0x9d, 0x3e, 0x55, 0x59, 0x9f, 0xbd,
  0x0f, 0x7a, 0x1d, 0x3d, 0xd7, 0x41, 0x85, 0x3e, 0xa8, 0x4a, 0x01, 0x3e,
  0x6f, 0x8c, 0xa4, 0xbd, 0x88, 0xa5, 0x8e, 0xbe, 0xf2, 0x69, 0xc3, 0x3d,
  0x09, 0xca, 0x06, 0xbd, 0xac, 0x56, 0x9e, 0x3e, 0x44, 0x5a, 0xb5, 0x3e,
  0xcc, 0xe3, 0x96, 0xbe, 0x70, 0x14, 0xfe, 0x3e, 0xdb, 0x07, 0x7f, 0xbe,
  0x05, 0x0a, 0xa9, 0xbd, 0x3e, 0x3f, 0x9d, 0x3e, 0x2d, 0xcc, 0x7f, 0x3e,
  0xab, 0xda, 0x00, 0xbe, 0xe6, 0x5d, 0xf1, 0xbc, 0xd9, 0xbb, 0xab, 0x3d,
  0x35, 0xdd, 0xa7, 0xbd, 0x74, 0x9d, 0x46, 0x3e, 0x70, 0x7c, 0xb3, 0xbe,
  0x63, 0x38, 0x30, 0xbd, 0xb6, 0x86, 0x24, 0xbd, 0x21, 0x1a, 0xc5, 0xbe,
  0x6e, 0xa8, 0x65, 0x3e, 0x2e, 0x15, 0x4a, 0xbe, 0x15, 0xfa, 0x48, 0xbe,
  0x19, 0x24, 0xd2, 0xbe, 0x74, 0x2c, 0x0d, 0x3e, 0xef, 0x31, 0x0f, 0xbc,
  0xa5, 0x53, 0x6d, 0x3e, 0x2a, 0xf0, 0x84, 0xbe, 0x1f, 0xc5, 0x8b, 0x3e,
  0x16, 0x95, 0x22, 0x3d, 0xbb, 0xca, 0xeb, 0xbd, 0x4c, 0xd6, 0xde, 0x3d,
  0x7b, 0x76, 0x80, 0xbd, 0x5b, 0xf2, 0x95, 0x3e, 0x5e, 0xee, 0x4f, 0xbe,
  0xee, 0xce, 0xbc, 0x3d, 0x72, 0x4c, 0x3a, 0x3d, 0xb7, 0x7c, 0xbc, 0xbd,
  0x01, 0x58, 0x05, 0xbe, 0x5c, 0x3f, 0xd9, 0xbd, 0xda, 0x1d, 0x53, 0xbe,
  0x12, 0xc1, 0xae, 0xbe, 0x4c, 0xf6, 0xb5, 0x3d, 0x47, 0xa2, 0xa9, 0x3d,
  0x1f, 0x06, 0x2c, 0xbe, 0x45, 0x23, 0xbc, 0xbd, 0x0c, 0xfe, 0xcc, 0xbd,
  0xde, 0x16, 0x10, 0x3e, 0x51, 0x74, 0xdc, 0xbd, 0x65, 0x9c, 0x7f, 0x3e,
  0x9a, 0xc9, 0x41, 0x3e, 0x32, 0xf9, 0xff, 0xff, 0x10, 0x00, 0x00, 0x00,
  0x06, 0x00, 0x00, 0x00, 0x14, 0x00, 0x00, 0x00, 0x30, 0x00, 0x00, 0x00,
  0x02, 0x00, 0x00, 0x00, 0x18, 0x00, 0x00, 0x00, 0x18, 0x00, 0x00, 0x00,
  0x1b, 0x00, 0x00, 0x00, 0x73, 0x65, 0x71, 0x75, 0x65, 0x6e, 0x74, 0x69,
  0x61, 0x6c, 0x5f, 0x31, 0x2f, 0x64, 0x65, 0x6e, 0x73, 0x65, 0x5f, 0x34,
  0x2f, 0x4d, 0x61, 0x74, 0x4d, 0x75, 0x6c, 0x00, 0xac, 0xf8, 0xff, 0xff,
  0xea, 0xf9, 0xff, 0xff, 0x04, 0x00, 0x00, 0x00, 0x80, 0x04, 0x00, 0x00,
  0xd6, 0x44, 0x88, 0xbe, 0x21, 0x19, 0x8f, 0xbe, 0xd2, 0x97, 0x04, 0xbe,
  0xb2, 0x10, 0xa3, 0xbe, 0xb0, 0x04, 0xf4, 0xbe, 0xfc, 0x1b, 0x5c, 0xbe,
  0x73, 0x33, 0x9a, 0xbe, 0xab, 0xc3, 0xac, 0xbe, 0x38, 0xda, 0xb1, 0xbe,
  0xfa, 0xad, 0x08, 0x3d, 0x1e, 0xa1, 0x4b, 0x3e, 0x94, 0xdf, 0xd8, 0x3d,
  0x38, 0xbb, 0x70, 0x3d, 0xa1, 0x3a, 0xbe, 0xbe, 0xf1, 0xfa, 0x9d, 0x3e,
  0x16, 0xa6, 0x4f, 0xbb, 0xe5, 0x57, 0x83, 0xbe, 0x25, 0x0e, 0x37, 0x3e,
  0xa4, 0xa8, 0x0b, 0xbe, 0xa1, 0x12, 0xf2, 0x3c, 0xd2, 0x7a, 0x00, 0x3e,
  0xf9, 0x0d, 0xb2, 0x3e, 0xe7, 0xcc, 0x93, 0x3e, 0xf3, 0x98, 0xcb, 0x3d,
  0xf5, 0x8f, 0x74, 0x3e, 0xd6, 0xf8, 0xf6, 0x3e, 0xc5, 0x75, 0x9f, 0xbe,
  0xb2, 0x61, 0xab, 0x3e, 0x69, 0x19, 0xf0, 0x3e, 0xb3, 0xb4, 0x7a, 0x3e,
  0x88, 0x8c, 0xfd, 0xbe, 0x0f, 0xc8, 0xaa, 0xbd, 0x64, 0x2b, 0xee, 0x3b,
  0x19, 0x7f, 0x54, 0xbc, 0x05, 0x5d, 0xaa, 0xbe, 0xf0, 0x08, 0xb8, 0xbe,
  0x6a, 0xb3, 0x9d, 0xbe, 0x6b, 0x50, 0x07, 0xbf, 0x36, 0xf7, 0xc4, 0x3d,
  0x9b, 0xc3, 0xa7, 0x3a, 0x9f, 0xe5, 0x52, 0x3e, 0x8d, 0x02, 0x04, 0x3e,
  0x2a, 0x66, 0x71, 0x3e, 0x6e, 0x29, 0x71, 0x3d, 0xa1, 0xee, 0x04, 0xbe,
  0x78, 0xda, 0x03, 0x3f, 0x3c, 0x44, 0xbe, 0x3e, 0x8d, 0xa9, 0x9c, 0x3e,
  0xd2, 0x73, 0x01, 0x3f, 0x5b, 0xe1, 0x89, 0x3e, 0x70, 0xbf, 0x04, 0xbe,
  0x4b, 0x6f, 0xc1, 0x3c, 0x4e, 0x5c, 0xf2, 0x3e, 0xf6, 0xca, 0xb5, 0x3e,
  0x93, 0x1e, 0x32, 0xbe, 0xee, 0x67, 0x3c, 0x3d, 0x39, 0x9a, 0xf1, 0x3e,
  0x12, 0x2e, 0x55, 0x3e, 0xbb, 0xae, 0x7c, 0x3b, 0x14, 0xff, 0xef, 0x3c,
  0x6a, 0x4c, 0xc9, 0x3e, 0x7d, 0xe3, 0x0a, 0x3e, 0x0c, 0x6a, 0x86, 0x3e,
  0x46, 0x77, 0xae, 0xbe, 0x66, 0x36, 0xdb, 0x3e, 0x05, 0x50, 0x81, 0x3e,
  0x42, 0x49, 0x20, 0xbe, 0xa5, 0x69, 0x4e, 0xbe, 0x96, 0x25, 0x13, 0xbe,
  0x9b, 0x86, 0x01, 0x3e, 0x3a, 0x8d, 0x03, 0xbf, 0x1d, 0x4a, 0xec, 0xbe,
  0x54, 0x4b, 0xcd, 0x3e, 0x1c, 0x4f, 0xde, 0x3e, 0x61, 0xd6, 0x56, 0x3e,
  0x34, 0x02, 0xf3, 0x3e, 0xb0, 0xde, 0xa6, 0x3e, 0x7e, 0xc9, 0xf6, 0x3d,
  0x2a, 0x2a, 0xc5, 0xbc, 0xfb, 0x9f, 0x02, 0xbe, 0xca, 0xdc, 0x56, 0x3e,
  0xc1, 0x88, 0x69, 0xbe, 0xae, 0x83, 0x80, 0x3d, 0x49, 0x74, 0xb7, 0x3d,
  0xbd, 0x8a, 0xaa, 0x3d, 0x37, 0x52, 0x64, 0xbc, 0x51, 0xa3, 0x99, 0x3e,
  0x0b, 0xa0, 0x66, 0x3d, 0xcb, 0xf7, 0xdd, 0xbc, 0xd4, 0xe8, 0x78, 0x3e,
  0x71, 0xed, 0x0f, 0x3e, 0xa5, 0x9d, 0x10, 0xbe, 0xbf, 0x4d, 0xdb, 0xbe,
  0x5b, 0x0a, 0xa0, 0xbe, 0xcc, 0x3b, 0x49, 0xbe, 0xa6, 0x25, 0x74, 0xbe,
  0x89, 0x1b, 0x87, 0x3e, 0x36, 0xab, 0xf7, 0xbc, 0x01, 0x2a, 0x95, 0x3e,
  0x08, 0x36, 0x81, 0x3e, 0xb4, 0x92, 0xba, 0x3d, 0x02, 0x42, 0xa4, 0x3e,
  0x9b, 0x12, 0x9d, 0x3d, 0xbf, 0x76, 0x52, 0x3e, 0x45, 0x44, 0xd5, 0x3e,
  0xec, 0xac, 0x98, 0x3e, 0x60, 0x71, 0x24, 0x3e, 0x14, 0xe9, 0xee, 0xbe,
  0x59, 0xf9, 0x9d, 0xbe, 0x5a, 0x65, 0x69, 0xbe, 0x5f, 0x0f, 0xfd, 0x3d,
  0x57, 0x80, 0xa3, 0x3d, 0x3e, 0x72, 0xa2, 0x3e, 0x36, 0xc4, 0x0e, 0xbe,
  0xda, 0x80, 0x65, 0x3e, 0xeb, 0x6f, 0x72, 0x3e, 0x2b, 0x63, 0xee, 0x3d,
  0x41, 0xc3, 0xdc, 0x3c, 0x99, 0x2b, 0x99, 0xbe, 0xa8, 0x58, 0xcf, 0xbc,
  0xcb, 0x33, 0x26, 0x3e, 0xe7, 0x3a, 0x03, 0xbe, 0xca, 0x72, 0x9b, 0x3e,
  0x3f, 0x1f, 0x88, 0x3e, 0x1a, 0xf0, 0xc0, 0x3e, 0x35, 0x67, 0x42, 0xbe,
  0x6e, 0x9b, 0x97, 0x3e, 0x9b, 0xd1, 0x3b, 0x3e, 0x53, 0x94, 0x6a, 0xbd,
  0xbd, 0xbb, 0x80, 0xbe, 0xe8, 0xee, 0xf1, 0x3d, 0x1c, 0xcb, 0x68, 0x3e,
  0x17, 0x62, 0xd6, 0x3e, 0x19, 0xb3, 0x4a, 0x3e, 0xf9, 0x25, 0x83, 0x3d,
  0xa4, 0xaf, 0x7b, 0x3e, 0x30, 0x0f, 0x20, 0x3d, 0x95, 0x8c, 0x8c, 0xbd,
  0xc4, 0xf1, 0x2d, 0x3e, 0x9d, 0xb6, 0xd7, 0xbd, 0x4b, 0x41, 0xd1, 0xbe,
  0xa6, 0xff, 0xbd, 0xbd, 0xb8, 0xca, 0x12, 0xbf, 0xc6, 0x3d, 0x1c, 0x3e,
  0x25, 0x9c, 0xef, 0xbd, 0xf7, 0xdb, 0xef, 0x3c, 0x7c, 0xce, 0xe2, 0xbe,
  0x92, 0x5d, 0xf4, 0xbe, 0xac, 0xe8, 0xe3, 0xbd, 0x3b, 0xb5, 0xd9, 0xbe,
  0xc1, 0xb9, 0x01, 0xbf, 0xdb, 0x2d, 0x90, 0xbe, 0xad, 0x65, 0x27, 0x3e,
  0x68, 0x15, 0xa0, 0xbd, 0xc7, 0xbc, 0x60, 0xbe, 0x2a, 0x57, 0x0b, 0x3e,
  0x6e, 0x90, 0x99, 0x3d, 0x40, 0x56, 0x84, 0x3e, 0x37, 0x26, 0x74, 0x3e,
  0xb1, 0x08, 0xae, 0xbe, 0x2b, 0x7f, 0xf6, 0xbd, 0x01, 0x71, 0xc1, 0x3d,
  0xa2, 0xd3, 0x8d, 0x3e, 0x19, 0x1b, 0x51, 0x3c, 0x7c, 0x43, 0xac, 0xbe,
  0x55, 0x7d, 0x20, 0xbe, 0x2d, 0x53, 0xca, 0x3d, 0x84, 0x4c, 0x68, 0xbd,
  0x44, 0x60, 0xa8, 0x3e, 0xe6, 0x54, 0xe3, 0x3e, 0xaf, 0x69, 0xab, 0x3e,
  0x62, 0xb6, 0x6f, 0xbe, 0x3a, 0x35, 0xaa, 0xbd, 0x72, 0x12, 0xaf, 0xbc,
  0x96, 0x56, 0x5c, 0x3e, 0xcf, 0x83, 0xe8, 0x3e, 0xbe, 0x19, 0x66, 0x3e,
  0xfc, 0xc7, 0x12, 0x3e, 0xfd, 0x40, 0x59, 0x3e, 0xe4, 0xfb, 0xe0, 0xbe,
  0x58, 0xfc, 0xc4, 0xbd, 0x6d, 0x19, 0x7e, 0xbe, 0x17, 0xab, 0x0f, 0x3e,
  0x2a, 0x90, 0xa7, 0xbe, 0xab, 0xbf, 0xdb, 0xbe, 0xfd, 0x19, 0x1a, 0xbe,
  0xdc, 0xea, 0xad, 0x3e, 0xf2, 0x95, 0x30, 0x3d, 0x58, 0x88, 0x46, 0xbe,
  0x04, 0xb9, 0xb8, 0xbd, 0xe7, 0x37, 0xfc, 0xbe, 0x67, 0xea, 0x9e, 0x3d,
  0xe5, 0x59, 0x2a, 0xbe, 0xea, 0xb7, 0xdc, 0xbe, 0x00, 0xa8, 0x8c, 0x3d,
  0xc5, 0xc8, 0x98, 0x3d, 0xa5, 0x81, 0x72, 0x3e, 0x0b, 0x66, 0x9c, 0xbe,
  0xf7, 0x64, 0xbe, 0xbd, 0xbe, 0xc6, 0x57, 0xbe, 0x6e, 0xb2, 0x98, 0xbe,
  0x3a, 0x9e, 0x76, 0xbe, 0xcd, 0xce, 0xe0, 0xbe, 0x1b, 0x67, 0xd3, 0xbd,
  0xf5, 0x79, 0x86, 0x3d, 0x0c, 0x51, 0x29, 0x3e, 0xba, 0x2f, 0x9f, 0xbe,
  0xea, 0xea, 0x0f, 0x3e, 0x0b, 0x57, 0x7e, 0x3e, 0x1c, 0xb9, 0xe8, 0xbc,
  0x01, 0x7a, 0x8b, 0xbe, 0x84, 0x6a, 0xf2, 0x3d, 0xdd, 0x0b, 0xe9, 0xbe,
  0xee, 0x85, 0x5d, 0xbd, 0x15, 0x80, 0xb4, 0x3d, 0xdb, 0x03, 0x2e, 0x3e,
  0x55, 0x0b, 0xc2, 0xbe, 0xe4, 0x4f, 0xf9, 0xbe, 0x1a, 0x24, 0x14, 0xbe,
  0x28, 0x64, 0xd8, 0xbe, 0x59, 0x96, 0x4c, 0xbe, 0x10, 0xd3, 0x80, 0x3e,
  0xaa, 0xed, 0x1f, 0x3e, 0xf9, 0xce, 0x81, 0x3e, 0x90, 0x27, 0x75, 0x3e,
  0xde, 0xc8, 0x85, 0x3e, 0xd8, 0x1b, 0xbc, 0xbd, 0x60, 0x79, 0x4f, 0xbe,
  0xef, 0x26, 0x42, 0x3d, 0x90, 0x7a, 0xa7, 0xbe, 0xa1, 0x19, 0x32, 0xbe,
  0xa3, 0x12, 0x45, 0xbe, 0xd8, 0x31, 0xa7, 0x3d, 0x4e, 0x74, 0x0d, 0x3e,
  0x26, 0x93, 0x39, 0xbe, 0x6c, 0x59, 0xf3, 0x3e, 0x85, 0xee, 0x8d, 0xbc,
  0x18, 0xa2, 0xa9, 0x3e, 0x66, 0xb2, 0xb7, 0x3e, 0x39, 0x7c, 0x3e, 0xbe,
  0x23, 0x71, 0x17, 0x3e, 0x50, 0x5c, 0x89, 0x3c, 0x2b, 0x31, 0xac, 0xbd,
  0xdf, 0x5c, 0x85, 0xbe, 0xb7, 0x7b, 0xfb, 0xbd, 0xe5, 0x12, 0xb5, 0xbe,
  0x6f, 0x4d, 0x1a, 0xbd, 0xc7, 0xf8, 0x03, 0xbf, 0x73, 0x2b, 0x53, 0x3e,
  0xef, 0x21, 0xcb, 0xbd, 0xd2, 0x76, 0xc2, 0xbe, 0x0e, 0x3a, 0x70, 0xbe,
  0x6b, 0xbd, 0x68, 0x3e, 0xa8, 0xc5, 0x30, 0x3e, 0x67, 0xbf, 0x0c, 0xbd,
  0x7d, 0xd0, 0x1f, 0xbe, 0x4e, 0xc9, 0x47, 0xbe, 0x9c, 0x28, 0xea, 0x3e,
  0xca, 0x0c, 0xdc, 0xbc, 0x09, 0x74, 0x09, 0x3e, 0x3f, 0x4b, 0xee, 0xbe,
  0x1b, 0x2f, 0xa0, 0x3c, 0x3c, 0x9a, 0x07, 0xbf, 0x7b, 0xc3, 0xd6, 0xbd,
  0x3e, 0x0f, 0x9c, 0x3d, 0x3b, 0x92, 0xca, 0x3e, 0xac, 0x06, 0x86, 0xbe,
  0xa0, 0xbe, 0x60, 0x3c, 0xf3, 0x14, 0xa4, 0x3e, 0x79, 0xa0, 0x0a, 0x3d,
  0x9a, 0x7c, 0x3c, 0xbe, 0x55, 0x22, 0x11, 0x3d, 0x8e, 0x5b, 0x0b, 0xbf,
  0x77, 0xdc, 0x36, 0x3e, 0x13, 0x86, 0xb5, 0xbe, 0x3d, 0x9f, 0x50, 0x3b,
  0xfc, 0xbd, 0x8e, 0xbe, 0xc8, 0x14, 0x83, 0xbe, 0xbe, 0x89, 0x28, 0xbc,
  0x2e, 0xb4, 0xa2, 0xbe, 0xe2, 0x0f, 0xc2, 0x3d, 0x05, 0x17, 0xef, 0x3d,
  0xf3, 0x0b, 0x4b, 0x3e, 0x45, 0x93, 0x87, 0x3e, 0x3e, 0xa3, 0x89, 0x3e,
  0x64, 0x60, 0x42, 0x3e, 0x10, 0x99, 0x66, 0x3c, 0xf3, 0x53, 0x7f, 0x3e,
  0x02, 0xfe, 0xff, 0xff, 0x10, 0x00, 0x00, 0x00, 0x05, 0x00, 0x00, 0x00,
  0x14, 0x00, 0x00, 0x00, 0x30, 0x00, 0x00, 0x00, 0x02, 0x00, 0x00, 0x00,
  0x18, 0x00, 0x00, 0x00, 0x0c, 0x00, 0x00, 0x00, 0x1b, 0x00, 0x00, 0x00,
  0x73, 0x65, 0x71, 0x75, 0x65, 0x6e, 0x74, 0x69, 0x61, 0x6c, 0x5f, 0x31,
  0x2f, 0x64, 0x65, 0x6e, 0x73, 0x65, 0x5f, 0x33, 0x2f, 0x4d, 0x61, 0x74,
  0x4d, 0x75, 0x6c, 0x00, 0x7c, 0xfd, 0xff, 0xff, 0xba, 0xfe, 0xff, 0xff,
  0x04, 0x00, 0x00, 0x00, 0x10, 0x00, 0x00, 0x00, 0x2d, 0x97, 0x3b, 0x3c,
  0x57, 0xcc, 0x06, 0x3e, 0xb7, 0x13, 0x27, 0xbc, 0xea, 0x64, 0xd8, 0xbd,
  0x62, 0xfe, 0xff, 0xff, 0x10, 0x00, 0x00, 0x00, 0x04, 0x00, 0x00, 0x00,
  0x10, 0x00, 0x00, 0x00, 0x48, 0x00, 0x00, 0x00, 0x01, 0x00, 0x00, 0x00,
  0x04, 0x00, 0x00, 0x00, 0x34, 0x00, 0x00, 0x00, 0x73, 0x65, 0x71, 0x75,
  0x65, 0x6e, 0x74, 0x69, 0x61, 0x6c, 0x5f, 0x31, 0x2f, 0x64, 0x65, 0x6e,
  0x73, 0x65, 0x5f, 0x35, 0x2f, 0x42, 0x69, 0x61, 0x73, 0x41, 0x64, 0x64,
  0x2f, 0x52, 0x65, 0x61, 0x64, 0x56, 0x61, 0x72, 0x69, 0x61, 0x62, 0x6c,
  0x65, 0x4f, 0x70, 0x2f, 0x72, 0x65, 0x73, 0x6f, 0x75, 0x72, 0x63, 0x65,
  0x00, 0x00, 0x00, 0x00, 0xf4, 0xfd, 0xff, 0xff, 0x32, 0xff, 0xff, 0xff,
  0x04, 0x00, 0x00, 0x00, 0x60, 0x00, 0x00, 0x00, 0xbc, 0x7a, 0xe8, 0x3d,
  0x1d, 0xe0, 0x59, 0x3d, 0x80, 0x6d, 0x0f, 0xbd, 0x09, 0x81, 0x4a, 0xbd,
  0x9f, 0x12, 0xac, 0x3d, 0x1c, 0x48, 0x04, 0x3e, 0xec, 0x14, 0x07, 0x3e,
  0xcd, 0x7b, 0x16, 0xbd, 0xb8, 0x72, 0x3e, 0x3d, 0x36, 0x8a, 0x6d, 0x3d,
  0x36, 0x01, 0xf8, 0xbb, 0x1c, 0x7b, 0x17, 0x3e, 0x13, 0xfd, 0x76, 0x3d,
  0x99, 0x8f, 0x0b, 0x3e, 0x3f, 0x60, 0x22, 0x3e, 0x35, 0x06, 0x88, 0x3d,
  0x09, 0xf4, 0xb7, 0xbc, 0x62, 0x8a, 0xad, 0x3d, 0x07, 0x40, 0x28, 0xbb,
  0x87, 0xce, 0xff, 0x3d, 0xc5, 0xeb, 0xf1, 0x3d, 0x08, 0x0e, 0x9a, 0xbc,
  0xfb, 0x0f, 0x82, 0x3d, 0x5b, 0x2c, 0x21, 0xbd, 0x2a, 0xff, 0xff, 0xff,
  0x10, 0x00, 0x00, 0x00, 0x03, 0x00, 0x00, 0x00, 0x10, 0x00, 0x00, 0x00,
  0x4c, 0x00, 0x00, 0x00, 0x01, 0x00, 0x00, 0x00, 0x18, 0x00, 0x00, 0x00,
  0x34, 0x00, 0x00, 0x00, 0x73, 0x65, 0x71, 0x75, 0x65, 0x6e, 0x74, 0x69,
  0x61, 0x6c, 0x5f, 0x31, 0x2f, 0x64, 0x65, 0x6e, 0x73, 0x65, 0x5f, 0x34,
  0x2f, 0x42, 0x69, 0x61, 0x73, 0x41, 0x64, 0x64, 0x2f, 0x52, 0x65, 0x61,
  0x64, 0x56, 0x61, 0x72, 0x69, 0x61, 0x62, 0x6c, 0x65, 0x4f, 0x70, 0x2f,
  0x72, 0x65, 0x73, 0x6f, 0x75, 0x72, 0x63, 0x65, 0x00, 0x00, 0x00, 0x00,
  0x04, 0x00, 0x06, 0x00, 0x04, 0x00, 0x00, 0x00, 0x00, 0x00, 0x06, 0x00,
  0x08, 0x00, 0x04, 0x00, 0x06, 0x00, 0x00, 0x00, 0x04, 0x00, 0x00, 0x00,
  0x60, 0x00, 0x00, 0x00, 0x83, 0xbe, 0x6a, 0x3d, 0xc4, 0x10, 0x57, 0x3d,
  0xd3, 0x56, 0x37, 0x3e, 0x8c, 0x3b, 0x07, 0x3e, 0x4a, 0xf9, 0x13, 0x3e,
  0x9b, 0x15, 0x39, 0x3e, 0x77, 0x49, 0xd0, 0x3d, 0x6d, 0x50, 0x2f, 0x3e,
  0x14, 0xce, 0x9e, 0x3d, 0xcf, 0x03, 0xb5, 0xbd, 0x77, 0x32, 0xa1, 0x3c,
  0x77, 0x92, 0x2b, 0x3e, 0xa8, 0x9f, 0x27, 0x3e, 0x1b, 0xc9, 0x3d, 0xbc,
  0x08, 0x67, 0x3a, 0x3d, 0xf4, 0x22, 0x1b, 0x3d, 0x29, 0x6c, 0x3a, 0x3e,
  0xd7, 0x85, 0xc2, 0xbd, 0xcc, 0x4a, 0xef, 0x3d, 0x9c, 0xca, 0x20, 0xbd,
  0x61, 0xd2, 0x10, 0x3e, 0xf9, 0xf1, 0x0b, 0x3e, 0x4a, 0xdd, 0xf7, 0x3d,
  0xc4, 0xcf, 0xd3, 0x3c, 0x00, 0x00, 0x0e, 0x00, 0x14, 0x00, 0x04, 0x00,
  0x00, 0x00, 0x08, 0x00, 0x0c, 0x00, 0x10, 0x00, 0x0e, 0x00, 0x00, 0x00,
  0x10, 0x00, 0x00, 0x00, 0x02, 0x00, 0x00, 0x00, 0x10, 0x00, 0x00, 0x00,
  0x48, 0x00, 0x00, 0x00, 0x01, 0x00, 0x00, 0x00, 0x18, 0x00, 0x00, 0x00,
  0x34, 0x00, 0x00, 0x00, 0x73, 0x65, 0x71, 0x75, 0x65, 0x6e, 0x74, 0x69,
  0x61, 0x6c, 0x5f, 0x31, 0x2f, 0x64, 0x65, 0x6e, 0x73, 0x65, 0x5f, 0x33,
  0x2f, 0x42, 0x69, 0x61, 0x73, 0x41, 0x64, 0x64, 0x2f, 0x52, 0x65, 0x61,
  0x64, 0x56, 0x61, 0x72, 0x69, 0x61, 0x62, 0x6c, 0x65, 0x4f, 0x70, 0x2f,
  0x72, 0x65, 0x73, 0x6f, 0x75, 0x72, 0x63, 0x65, 0x00, 0x00, 0x00, 0x00,
  0xa0, 0xff, 0xff, 0xff, 0x14, 0x00, 0x18, 0x00, 0x04, 0x00, 0x00, 0x00,
  0x08, 0x00, 0x0c, 0x00, 0x10, 0x00, 0x00, 0x00, 0x00, 0x00, 0x14, 0x00,
  0x14, 0x00, 0x00, 0x00, 0x14, 0x00, 0x00, 0x00, 0x01, 0x00, 0x00, 0x00,
  0x24, 0x00, 0x00, 0x00, 0x34, 0x00, 0x00, 0x00, 0x10, 0x00, 0x00, 0x00,
  0x02, 0x00, 0x00, 0x00, 0x01, 0x00, 0x00, 0x00, 0x0c, 0x00, 0x00, 0x00,
  0x02, 0x00, 0x00, 0x00, 0xff, 0xff, 0xff, 0xff, 0x0c, 0x00, 0x00, 0x00,
  0x0d, 0x00, 0x00, 0x00, 0x64, 0x65, 0x6e, 0x73, 0x65, 0x5f, 0x33, 0x5f,
  0x69, 0x6e, 0x70, 0x75, 0x74, 0x00, 0x00, 0x00, 0xfc, 0xff, 0xff, 0xff,
  0x04, 0x00, 0x04, 0x00, 0x04, 0x00, 0x00, 0x00
};
const unsigned int micro_no_quant_demo_model_len = 5864;
